{
  "version": "1.0",
  "truncation": null,
  "padding": null,
  "added_tokens": [
    {
      "id": 0,
      "content": "<pad>",
      "single_word": false,
      "lstrip": false,
      "rstrip": false,
      "normalized": false,
      "special": true
    },
    {
      "id": 1,
      "content": "<unk>",
      "single_word": false,
      "lstrip": false,
      "rstrip": false,
      "normalized": false,
      "special": true
    },
    {
      "id": 2,
      "content": "<bos>",
      "single_word": false,
      "lstrip": false,
      "rstrip": false,
      "normalized": false,
      "special": true
    },
    {
      "id": 3,
      "content": "<eos>",
      "single_word": false,
      "lstrip": false,
      "rstrip": false,
      "normalized": false,
      "special": true
    }
  ],
  "normalizer": null,
  "pre_tokenizer": {
    "type": "ByteLevel",
    "add_prefix_space": true,
    "trim_offsets": true,
    "use_regex": true
  },
  "post_processor": null,
  "decoder": {
    "type": "ByteLevel",
    "add_prefix_space": true,
    "trim_offsets": true,
    "use_regex": true
  },
  "model": {
    "type": "BPE",
    "dropout": null,
    "unk_token": "<unk>",
    "continuing_subword_prefix": null,
    "end_of_word_suffix": null,
    "fuse_unk": false,
    "byte_fallback": false,
    "ignore_merges": false,
    "vocab": {
      "<pad>": 0,
      "<unk>": 1,
      "<bos>": 2,
      "<eos>": 3,
      "!": 4,
      "\"": 5,
      "#": 6,
      "$": 7,
      "%": 8,
      "&": 9,
      "'": 10,
      "(": 11,
      ")": 12,
      "*": 13,
      "+": 14,
      ",": 15,
      "-": 16,
      ".": 17,
      "/": 18,
      "0": 19,
      "1": 20,
      "2": 21,
      "3": 22,
      "4": 23,
      "5": 24,
      "6": 25,
      "7": 26,
      "8": 27,
      "9": 28,
      ":": 29,
      ";": 30,
      "<": 31,
      "=": 32,
      ">": 33,
      "?": 34,
      "@": 35,
      "A": 36,
      "B": 37,
      "C": 38,
      "D": 39,
      "E": 40,
      "F": 41,
      "G": 42,
      "H": 43,
      "I": 44,
      "J": 45,
      "K": 46,
      "L": 47,
      "M": 48,
      "N": 49,
      "O": 50,
      "P": 51,
      "Q": 52,
      "R": 53,
      "S": 54,
      "T": 55,
      "U": 56,
      "V": 57,
      "W": 58,
      "X": 59,
      "Y": 60,
      "Z": 61,
      "[": 62,
      "\\": 63,
      "]": 64,
      "^": 65,
      "_": 66,
      "`": 67,
      "a": 68,
      "b": 69,
      "c": 70,
      "d": 71,
      "e": 72,
      "f": 73,
      "g": 74,
      "h": 75,
      "i": 76,
      "j": 77,
      "k": 78,
      "l": 79,
      "m": 80,
      "n": 81,
      "o": 82,
      "p": 83,
      "q": 84,
      "r": 85,
      "s": 86,
      "t": 87,
      "u": 88,
      "v": 89,
      "w": 90,
      "x": 91,
      "y": 92,
      "z": 93,
      "{": 94,
      "|": 95,
      "}": 96,
      "~": 97,
      "¡": 98,
      "¢": 99,
      "£": 100,
      "¤": 101,
      "¥": 102,
      "¦": 103,
      "§": 104,
      "¨": 105,
      "©": 106,
      "ª": 107,
      "«": 108,
      "¬": 109,
      "®": 110,
      "¯": 111,
      "°": 112,
      "±": 113,
      "²": 114,
      "³": 115,
      "´": 116,
      "µ": 117,
      "¶": 118,
      "·": 119,
      "¸": 120,
      "¹": 121,
      "º": 122,
      "»": 123,
      "¼": 124,
      "½": 125,
      "¾": 126,
      "¿": 127,
      "Â": 128,
      "Ã": 129,
      "Ä": 130,
      "Å": 131,
      "Æ": 132,
      "Ç": 133,
      "È": 134,
      "É": 135,
      "Ê": 136,
      "Ë": 137,
      "Ì": 138,
      "Í": 139,
      "Î": 140,
      "Ï": 141,
      "Ð": 142,
      "Ñ": 143,
      "Ò": 144,
      "Ó": 145,
      "Ô": 146,
      "Õ": 147,
      "Ö": 148,
      "×": 149,
      "Ø": 150,
      "Ù": 151,
      "Ú": 152,
      "Û": 153,
      "Ü": 154,
      "Ý": 155,
      "Þ": 156,
      "ß": 157,
      "à": 158,
      "á": 159,
      "â": 160,
      "ã": 161,
      "ä": 162,
      "å": 163,
      "æ": 164,
      "ç": 165,
      "è": 166,
      "é": 167,
      "ê": 168,
      "ë": 169,
      "ì": 170,
      "í": 171,
      "î": 172,
      "ï": 173,
      "ð": 174,
      "ñ": 175,
      "ò": 176,
      "ó": 177,
      "ô": 178,
      "ā": 179,
      "Ă": 180,
      "ă": 181,
      "Ą": 182,
      "ą": 183,
      "Ć": 184,
      "ć": 185,
      "Ĉ": 186,
      "ĉ": 187,
      "Ċ": 188,
      "ċ": 189,
      "Č": 190,
      "č": 191,
      "Ď": 192,
      "ď": 193,
      "Đ": 194,
      "đ": 195,
      "Ē": 196,
      "ē": 197,
      "Ĕ": 198,
      "ĕ": 199,
      "Ė": 200,
      "ė": 201,
      "Ę": 202,
      "ę": 203,
      "Ě": 204,
      "ě": 205,
      "Ĝ": 206,
      "ĝ": 207,
      "Ğ": 208,
      "ğ": 209,
      "Ġ": 210,
      "ġ": 211,
      "Ģ": 212,
      "ģ": 213,
      "Ĥ": 214,
      "ĥ": 215,
      "Ħ": 216,
      "ħ": 217,
      "Ĩ": 218,
      "ĩ": 219,
      "Ī": 220,
      "ī": 221,
      "Ĭ": 222,
      "ĭ": 223,
      "Į": 224,
      "į": 225,
      "İ": 226,
      "ı": 227,
      "Ĳ": 228,
      "ĳ": 229,
      "Ĵ": 230,
      "ĵ": 231,
      "Ķ": 232,
      "ķ": 233,
      "ĸ": 234,
      "Ĺ": 235,
      "ĺ": 236,
      "Ļ": 237,
      "ļ": 238,
      "Ľ": 239,
      "ľ": 240,
      "Ŀ": 241,
      "ŀ": 242,
      "Ł": 243,
      "ł": 244,
      "Ń": 245,
      "Ġt": 246,
      "Ġa": 247,
      "in": 248,
      "he": 249,
      "on": 250,
      "re": 251,
      "er": 252,
      "Ġthe": 253,
      "Ġs": 254,
      "at": 255,
      "Ġo": 256,
      "en": 257,
      "Ġc": 258,
      "es": 259,
      "is": 260,
      "Ġw": 261,
      "an": 262,
      "it": 263,
      "or": 264,
      "al": 265,
      "Ġp": 266,
      "ing": 267,
      "Ġan": 268,
      "Ġf": 269,
      "ed": 270,
      "Ġb": 271,
      "ar": 272,
      "ou": 273,
      "Ġin": 274,
      "Ġof": 275,
      "ion": 276,
      "Ġm": 277,
      "ic": 278,
      "Ġand": 279,
      "Ġd": 280,
      "Ġto": 281,
      "le": 282,
      "as": 283,
      "ro": 284,
      "ent": 285,
      "Ġh": 286,
      "ct": 287,
      "Ġth": 288,
      "Ġe": 289,
      "om": 290,
      "il": 291,
      "Ġre": 292,
      "st": 293,
      "Ġn": 294,
      "Ġl": 295,
      "ve": 296,
      "et": 297,
      "ĠT": 298,
      "ol": 299,
      "Ġis": 300,
      "ly": 301,
      "ĠS": 302,
      "Ġg": 303,
      "ĠA": 304,
      "ation": 305,
      "ra": 306,
      "ot": 307,
      "im": 308,
      "id": 309,
      "ut": 310,
      "ce": 311,
      "se": 312,
      "âĢ": 313,
      "ow": 314,
      "ch": 315,
      "ĠI": 316,
      "ig": 317,
      "ĠC": 318,
      "Ġbe": 319,
      "ur": 320,
      "Ġfor": 321,
      "Ġu": 322,
      "am": 323,
      "Ġon": 324,
      "ĠĠ": 325,
      "Ġst": 326,
      "Ġy": 327,
      "ver": 328,
      "el": 329,
      "ir": 330,
      "Ġ(": 331,
      "ay": 332,
      "ith": 333,
      "Ġ1": 334,
      "ul": 335,
      "ad": 336,
      "Ġthat": 337,
      "ĠM": 338,
      "Ġcon": 339,
      "Ġwith": 340,
      "Ġas": 341,
      "ĠP": 342,
      "her": 343,
      "ter": 344,
      "ĠB": 345,
      "if": 346,
      "Ġyou": 347,
      "Ġpro": 348,
      "Ġit": 349,
      "nd": 350,
      "ge": 351,
      "Ġal": 352,
      "ĠThe": 353,
      "Ġex": 354,
      "um": 355,
      "Ġwh": 356,
      "od": 357,
      "ers": 358,
      "ist": 359,
      "Ġ2": 360,
      "ate": 361,
      "qu": 362,
      "ĠH": 363,
      "Ġor": 364,
      "Ġde": 365,
      "ri": 366,
      "th": 367,
      "us": 368,
      "and": 369,
      "Ġare": 370,
      "ab": 371,
      "ĠD": 372,
      "est": 373,
      "Ġcom": 374,
      "ĠW": 375,
      "os": 376,
      "ĠR": 377,
      "res": 378,
      "Ġwe": 379,
      "op": 380,
      "ac": 381,
      "ess": 382,
      "em": 383,
      "Ġv": 384,
      "ĠF": 385,
      "Ġhe": 386,
      "ity": 387,
      "ect": 388,
      "un": 389,
      "ill": 390,
      "ive": 391,
      "ment": 392,
      "ĠE": 393,
      "ke": 394,
      "pp": 395,
      "ies": 396,
      "ore": 397,
      "igh": 398,
      "ld": 399,
      "Ġby": 400,
      "rom": 401,
      "Ġat": 402,
      "ĠL": 403,
      "Ġwas": 404,
      "iv": 405,
      "ain": 406,
      "Ġsu": 407,
      "oc": 408,
      "ĠN": 409,
      "00": 410,
      "ant": 411,
      "ĠG": 412,
      "ud": 413,
      "ĠÐ": 414,
      "nt": 415,
      "Ġse": 416,
      "Ġfrom": 417,
      "Ġne": 418,
      "Ġr": 419,
      "art": 420,
      "Ġch": 421,
      "ort": 422,
      "ial": 423,
      "pt": 424,
      "Ġha": 425,
      "Ġnot": 426,
      "'s": 427,
      "ions": 428,
      "pl": 429,
      "ure": 430,
      "Ġ\"": 431,
      "ight": 432,
      "all": 433,
      "Ð¾": 434,
      "Ġsh": 435,
      "âĢĻ": 436,
      "Ġle": 437,
      "Ġthis": 438,
      "ere": 439,
      "Ġen": 440,
      "Ġcan": 441,
      "ical": 442,
      "ag": 443,
      "ĠO": 444,
      "og": 445,
      "ĠĠĠĠ": 446,
      "rou": 447,
      "our": 448,
      "ust": 449,
      "ard": 450,
      "ĠJ": 451,
      "ine": 452,
      "Ðµ": 453,
      "pe": 454,
      "ĠâĢ": 455,
      "Ġint": 456,
      "gh": 457,
      "Ġpl": 458,
      "out": 459,
      "Ġab": 460,
      "per": 461,
      "ould": 462,
      "ich": 463,
      "age": 464,
      "Ġhave": 465,
      "ie": 466,
      "ated": 467,
      "Ð°": 468,
      "ome": 469,
      "ell": 470,
      "iz": 471,
      "Ġwor": 472,
      "The": 473,
      "end": 474,
      "ost": 475,
      "Ġk": 476,
      "Ġus": 477,
      "ak": 478,
      "--": 479,
      "ans": 480,
      "ĠU": 481,
      "Ð¸": 482,
      "ide": 483,
      "act": 484,
      "Ġ19": 485,
      "ib": 486,
      "ast": 487,
      "Ġcomp": 488,
      "ations": 489,
      "ok": 490,
      "are": 491,
      "du": 492,
      "ÑĤ": 493,
      "ĠIn": 494,
      "Ġcont": 495,
      "cl": 496,
      "Ġim": 497,
      "ther": 498,
      "ff": 499,
      "ip": 500,
      "ous": 501,
      "Ġwhe": 502,
      "ong": 503,
      "Ġj": 504,
      "ult": 505,
      "ire": 506,
      "ia": 507,
      "ence": 508,
      "Ġad": 509,
      "ue": 510,
      "orm": 511,
      "Ġun": 512,
      "Ġyour": 513,
      "ber": 514,
      "ear": 515,
      "ap": 516,
      "ary": 517,
      "Ġall": 518,
      "Ġtheir": 519,
      "ry": 520,
      "Ġte": 521,
      "Ġres": 522,
      "Ð½": 523,
      "able": 524,
      "Ġwhich": 525,
      "cc": 526,
      "ep": 527,
      "ĠTh": 528,
      "ach": 529,
      "Ġcl": 530,
      "Ġdo": 531,
      "Ġme": 532,
      "ass": 533,
      "ance": 534,
      "ĠK": 535,
      "ack": 536,
      "ind": 537,
      "ĠSt": 538,
      "ame": 539,
      "Ġ20": 540,
      "ction": 541,
      "Ġqu": 542,
      "ents": 543,
      "Ġhas": 544,
      "ru": 545,
      "Ġhis": 546,
      "rit": 547,
      "Ġbut": 548,
      "Ġ$": 549,
      "ign": 550,
      "Ġwill": 551,
      "so": 552,
      "Ñģ": 553,
      "Ġthey": 554,
      "ice": 555,
      "vel": 556,
      "Ġdis": 557,
      "ory": 558,
      "ual": 559,
      "ÑĢ": 560,
      "ces": 561,
      "av": 562,
      "ime": 563,
      "ook": 564,
      "Ġone": 565,
      "Ġapp": 566,
      "Ġman": 567,
      "Ġar": 568,
      "one": 569,
      "Ġ3": 570,
      "..": 571,
      "Ð¾Ð": 572,
      "Ġ-": 573,
      "ang": 574,
      "Ġsp": 575,
      "ub": 576,
      "ks": 577,
      "ail": 578,
      "Ġ=": 579,
      "Ġout": 580,
      "Ġgo": 581,
      "Ġper": 582,
      "ish": 583,
      "ens": 584,
      "ile": 585,
      "Ġmore": 586,
      "ike": 587,
      "ition": 588,
      "ian": 589,
      "ake": 590,
      "ress": 591,
      "ord": 592,
      "ace": 593,
      "low": 594,
      "ase": 595,
      "Ġpart": 596,
      "Ġother": 597,
      "xt": 598,
      "ĠV": 599,
      "Ġpre": 600,
      "form": 601,
      "ose": 602,
      "reat": 603,
      "ĠY": 604,
      "int": 605,
      "Ġabout": 606,
      "ĠCh": 607,
      "Ġso": 608,
      "au": 609,
      "Ġalso": 610,
      "ph": 611,
      "very": 612,
      "now": 613,
      "fere": 614,
      "Ġwere": 615,
      ").": 616,
      "Ġsc": 617,
      "Ġev": 618,
      "ond": 619,
      "ors": 620,
      "ound": 621,
      "ew": 622,
      "Ġup": 623,
      "te": 624,
      "Ġimp": 625,
      "mer": 626,
      "Ġtr": 627,
      "nder": 628,
      "clud": 629,
      "ater": 630,
      "ite": 631,
      "ount": 632,
      "ll": 633,
      "ild": 634,
      "ove": 635,
      "),": 636,
      "ĠIt": 637,
      "Ġ\\": 638,
      "ric": 639,
      "Ġinto": 640,
      "ree": 641,
      "ath": 642,
      "Ġwho": 643,
      "vers": 644,
      "âĢĿ": 645,
      "Ġro": 646,
      "Ġtra": 647,
      "irst": 648,
      "Ġstud": 649,
      "Âł": 650,
      "Ġsome": 651,
      "wo": 652,
      "ings": 653,
      "ov": 654,
      "Ġno": 655,
      "tern": 656,
      "Ġlike": 657,
      "ough": 658,
      "Ġcomm": 659,
      "Ġits": 660,
      "Ġthem": 661,
      "Ġrec": 662,
      "ates": 663,
      "Ġbec": 664,
      "Ġtime": 665,
      "ng": 666,
      "##": 667,
      "ple": 668,
      "Ġpe": 669,
      "erv": 670,
      "Ġover": 671,
      "Ġag": 672,
      "Ġdes": 673,
      "ĠâĢĵ": 674,
      "ally": 675,
      "ne": 676,
      "we": 677,
      "ons": 678,
      "ract": 679,
      "rough": 680,
      "Ġknow": 681,
      "Ġher": 682,
      "ays": 683,
      "Ġthere": 684,
      "Ġ200": 685,
      "Ġ4": 686,
      "Ġrel": 687,
      "pec": 688,
      "Ġsy": 689,
      "ative": 690,
      "Ġunder": 691,
      "Ġif": 692,
      "Ġcol": 693,
      "Ġwhen": 694,
      "Ġbet": 695,
      "ject": 696,
      "ool": 697,
      "19": 698,
      "ms": 699,
      "Ġpos": 700,
      "ft": 701,
      "Ġhad": 702,
      "ob": 703,
      "Ġnew": 704,
      "les": 705,
      "lect": 706,
      "Ġwork": 707,
      "ious": 708,
      "ĠThis": 709,
      "ys": 710,
      "**": 711,
      "ics": 712,
      "Ġind": 713,
      "olog": 714,
      "Ġhow": 715,
      "ark": 716,
      "ck": 717,
      "ood": 718,
      "ating": 719,
      "ific": 720,
      "ople": 721,
      "Ġfirst": 722,
      "lic": 723,
      "Ġthan": 724,
      "Ġwould": 725,
      "ning": 726,
      "Ġinclud": 727,
      "Ġyear": 728,
      "Ġcons": 729,
      "ible": 730,
      "Ġthese": 731,
      "ise": 732,
      "Ġ5": 733,
      "Ġdif": 734,
      "red": 735,
      "Ġbeen": 736,
      "Ġour": 737,
      "ities": 738,
      "Ġ201": 739,
      "ĠâĢľ": 740,
      "Ð»": 741,
      "Ġacc": 742,
      "ĠRe": 743,
      "ns": 744,
      "Ġra": 745,
      "Ġtwo": 746,
      "hed": 747,
      "----": 748,
      "Ġany": 749,
      ".\"": 750,
      "Ġact": 751,
      "old": 752,
      "Ġoff": 753,
      "fter": 754,
      "Ġph": 755,
      "Ġam": 756,
      "ational": 757,
      "row": 758,
      "Ġem": 759,
      "In": 760,
      "rib": 761,
      "ĠUn": 762,
      "ĠHe": 763,
      "Ġ'": 764,
      "Ġwhat": 765,
      "Ġuse": 766,
      "ener": 767,
      "ments": 768,
      "hes": 769,
      "Ġext": 770,
      "Ġfe": 771,
      "Ġnum": 772,
      "round": 773,
      "ased": 774,
      "ced": 775,
      "ular": 776,
      "Ġmy": 777,
      "Ġmay": 778,
      "Ġco": 779,
      "ĠĠĠ": 780,
      "uring": 781,
      "Ġsub": 782,
      "20": 783,
      "Ġ6": 784,
      "eth": 785,
      "Ġthrough": 786,
      "Ġsuch": 787,
      "Ġsa": 788,
      "Ġpeople": 789,
      "ink": 790,
      "Ġmod": 791,
      "cess": 792,
      "Ġbl": 793,
      "oth": 794,
      "wer": 795,
      "Ġexp": 796,
      "cre": 797,
      "ful": 798,
      "erm": 799,
      "stem": 800,
      "Ġprodu": 801,
      "ick": 802,
      "Ġonly": 803,
      "Ġneed": 804,
      "als": 805,
      "Ġ0": 806,
      "ble": 807,
      "ient": 808,
      "ram": 809,
      "Ġrep": 810,
      "ĠĠĠĠĠĠĠĠ": 811,
      "oint": 812,
      "ied": 813,
      "Ġreg": 814,
      "ause": 815,
      "ont": 816,
      "Ġprov": 817,
      "ures": 818,
      "iew": 819,
      "ution": 820,
      "own": 821,
      "ollow": 822,
      "Ñĥ": 823,
      "ility": 824,
      "Ġob": 825,
      "iss": 826,
      "Ġwhere": 827,
      "chool": 828,
      "Ġexam": 829,
      "oy": 830,
      "fore": 831,
      "Ġspec": 832,
      "Ġass": 833,
      "ict": 834,
      "Ġtrans": 835,
      "ween": 836,
      "Ġjust": 837,
      "Ġadd": 838,
      "ert": 839,
      "'t": 840,
      "Ġpr": 841,
      "Ġplay": 842,
      "Ġinter": 843,
      "ward": 844,
      "ps": 845,
      "Ġmost": 846,
      "Ġdiffere": 847,
      "Ġbu": 848,
      "eg": 849,
      "aw": 850,
      "Ġdet": 851,
      "Ġhel": 852,
      "Ġget": 853,
      "ss": 854,
      "Ġinv": 855,
      "ange": 856,
      "Ġatt": 857,
      "Ġexpl": 858,
      "velop": 859,
      "ife": 860,
      "Ġform": 861,
      "ting": 862,
      "Ġrem": 863,
      "Ġbetween": 864,
      "Ġac": 865,
      "ata": 866,
      "Ġused": 867,
      "Ġshould": 868,
      "Ġthen": 869,
      "Ð°Ð": 870,
      "sel": 871,
      "ren": 872,
      "cept": 873,
      "Ġset": 874,
      "ade": 875,
      "Ġinst": 876,
      "Ġeff": 877,
      "Ġpres": 878,
      "ited": 879,
      "Ñı": 880,
      "ari": 881,
      "Ġpol": 882,
      "Ġsim": 883,
      "Ġfollow": 884,
      "Ġshe": 885,
      "its": 886,
      "erson": 887,
      "ĠPro": 888,
      "ues": 889,
      "Ġeach": 890,
      "ower": 891,
      "ily": 892,
      "Ġfun": 893,
      "Ġmany": 894,
      "ts": 895,
      "Ġcould": 896,
      "Ġent": 897,
      "Ġfl": 898,
      "hen": 899,
      "cy": 900,
      "Ġans": 901,
      "Ġval": 902,
      "âĢĵ": 903,
      "yp": 904,
      "arg": 905,
      "ten": 906,
      "land": 907,
      "Ġsystem": 908,
      "chn": 909,
      "Ġsm": 910,
      "ident": 911,
      "à¤": 912,
      "Ġmake": 913,
      "Ġafter": 914,
      "wn": 915,
      "arch": 916,
      "ĠAl": 917,
      "ÐµÐ": 918,
      "Ġsur": 919,
      "meric": 920,
      "Ġ7": 921,
      "ĠWh": 922,
      "put": 923,
      "hip": 924,
      "Ġdef": 925,
      "urn": 926,
      "Ñĭ": 927,
      "gan": 928,
      "Ġevery": 929,
      "ĠCom": 930,
      "ered": 931,
      "ec": 932,
      "ĠWe": 933,
      "Ġsupp": 934,
      "Ġdevelop": 935,
      "Ġsol": 936,
      "Ġwell": 937,
      "Ġ&": 938,
      "io": 939,
      "pect": 940,
      "ize": 941,
      "estion": 942,
      "alth": 943,
      "ience": 944,
      "led": 945,
      "Ġmat": 946,
      "ines": 947,
      "Ġposs": 948,
      "ax": 949,
      "ural": 950,
      "stand": 951,
      "aking": 952,
      "Ġhelp": 953,
      "10": 954,
      "Ġ18": 955,
      "ĊĊ": 956,
      "Ġdisc": 957,
      "iven": 958,
      "ork": 959,
      "Ġ[": 960,
      "Ġequ": 961,
      "Ġgener": 962,
      "Ġloc": 963,
      "Ġdist": 964,
      "Ġwrit": 965,
      "Ġcall": 966,
      "uch": 967,
      "Ġdi": 968,
      "Ġdoes": 969,
      "ĠAr": 970,
      "ever": 971,
      "Ġexper": 972,
      "ins": 973,
      "irect": 974,
      "ature": 975,
      "ruct": 976,
      "Ġback": 977,
      "inal": 978,
      "Ã©": 979,
      "Ġsign": 980,
      "other": 981,
      "Ġdifferent": 982,
      "iel": 983,
      "Ġdec": 984,
      "ists": 985,
      "Ġyears": 986,
      "Ġanswer": 987,
      "Ġ10": 988,
      "Ġke": 989,
      "ef": 990,
      "Ġhigh": 991,
      "Ġschool": 992,
      "Ġwhile": 993,
      "Ġsee": 994,
      "oci": 995,
      "Ġcur": 996,
      "imes": 997,
      "ix": 998,
      "ism": 999,
      "ars": 1000,
      "Ġcomple": 1001,
      "Ġart": 1002,
      "Ġusing": 1003,
      "ex": 1004,
      "ages": 1005,
      "ically": 1006,
      "Ġins": 1007,
      "ives": 1008,
      "Ġeven": 1009,
      "Ġinf": 1010,
      "Ġcre": 1011,
      "ÑĮ": 1012,
      "Ġed": 1013,
      "ness": 1014,
      "Ġnumber": 1015,
      "com": 1016,
      "Ġstr": 1017,
      "Ġsec": 1018,
      "Ġret": 1019,
      "the": 1020,
      "ices": 1021,
      "formation": 1022,
      "ĠAn": 1023,
      "Ġcor": 1024,
      "Ġstudents": 1025,
      "Ø§": 1026,
      "Ġworld": 1027,
      "ĠAmeric": 1028,
      "Th": 1029,
      "ĠAs": 1030,
      "raph": 1031,
      "ock": 1032,
      "Ġend": 1033,
      "iqu": 1034,
      "uc": 1035,
      "Ġ+": 1036,
      "Ġ.": 1037,
      "ology": 1038,
      "$$": 1039,
      "ale": 1040,
      "Ġlong": 1041,
      "Ġbecause": 1042,
      "Ġappro": 1043,
      "ug": 1044,
      "ĠFor": 1045,
      "eng": 1046,
      "ants": 1047,
      "Ġcent": 1048,
      "Ġtechn": 1049,
      "up": 1050,
      "Ġfind": 1051,
      "ince": 1052,
      "Ġ8": 1053,
      "Ġfound": 1054,
      "Ġhim": 1055,
      "Ð¸Ð": 1056,
      "...": 1057,
      "Ġear": 1058,
      "der": 1059,
      "ivers": 1060,
      "Ġbeing": 1061,
      "Ġway": 1062,
      "Ġbefore": 1063,
      "tle": 1064,
      "Ġshow": 1065,
      "Ġboth": 1066,
      "ving": 1067,
      "any": 1068,
      "Ġlook": 1069,
      "ÑģÑĤ": 1070,
      "{\\": 1071,
      "ional": 1072,
      "ases": 1073,
      "nce": 1074,
      "Ġ/": 1075,
      "ized": 1076,
      "ĠYou": 1077,
      "Ġresult": 1078,
      "ier": 1079,
      "ty": 1080,
      "ually": 1081,
      "Ġest": 1082,
      "Ġserv": 1083,
      "Ġpoint": 1084,
      "Ġchild": 1085,
      "Ġbr": 1086,
      "Ġduring": 1087,
      "__": 1088,
      "vent": 1089,
      "Ġmin": 1090,
      "view": 1091,
      "ĠÐ¿": 1092,
      "Ġdep": 1093,
      "Ġ199": 1094,
      "Ġagain": 1095,
      "ik": 1096,
      "ah": 1097,
      "ĠIf": 1098,
      "air": 1099,
      "Ġchar": 1100,
      "Ġmed": 1101,
      "ĠHow": 1102,
      "Ġlear": 1103,
      "Ġvery": 1104,
      "Ġsame": 1105,
      "Ġperson": 1106,
      "ĠNew": 1107,
      "Ġread": 1108,
      "ield": 1109,
      "ral": 1110,
      "Ġimport": 1111,
      "get": 1112,
      "Ġright": 1113,
      "gy": 1114,
      "Ġpar": 1115,
      "Ġser": 1116,
      "Ġref": 1117,
      "ined": 1118,
      "Ġgu": 1119,
      "Ġprog": 1120,
      "Ġrequ": 1121,
      "Ġmem": 1122,
      "Ġdata": 1123,
      "ublic": 1124,
      "Ġstart": 1125,
      "ential": 1126,
      "ave": 1127,
      "ĠQ": 1128,
      "Ġhum": 1129,
      "Ġfam": 1130,
      "Ġaut": 1131,
      "Ġreal": 1132,
      "pr": 1133,
      "con": 1134,
      "Ġpartic": 1135,
      "Ġgrou": 1136,
      "ason": 1137,
      "Ġcar": 1138,
      "Ġcount": 1139,
      "Ġcommun": 1140,
      "ved": 1141,
      "ven": 1142,
      "ision": 1143,
      "cent": 1144,
      "Ġfact": 1145,
      "âĢ¢": 1146,
      "ner": 1147,
      "ather": 1148,
      "ted": 1149,
      "ien": 1150,
      "rent": 1151,
      "Ġlead": 1152,
      "Ġ|": 1153,
      "anc": 1154,
      "Ġown": 1155,
      "hem": 1156,
      "Ġprocess": 1157,
      "und": 1158,
      "Ġ9": 1159,
      "ection": 1160,
      "Ġav": 1161,
      "az": 1162,
      "Ġunderstand": 1163,
      "000": 1164,
      "Ġtext": 1165,
      "Ġdirect": 1166,
      "Ġthose": 1167,
      "ĠĊ": 1168,
      "Ġsk": 1169,
      "way": 1170,
      "orn": 1171,
      "Ġclass": 1172,
      "Ġmon": 1173,
      "ï¼": 1174,
      "arm": 1175,
      "uss": 1176,
      "Ġmade": 1177,
      "rodu": 1178,
      "ĠCon": 1179,
      "Ġstate": 1180,
      "ank": 1181,
      "ute": 1182,
      "Ġlife": 1183,
      "Ġconst": 1184,
      "Ġfil": 1185,
      "ets": 1186,
      "read": 1187,
      "Ġnow": 1188,
      "Ġtop": 1189,
      "Ġmuch": 1190,
      "oh": 1191,
      "over": 1192,
      "ĠSe": 1193,
      "day": 1194,
      "Ġpossible": 1195,
      "ĠSh": 1196,
      "ull": 1197,
      "Ġsent": 1198,
      ".,": 1199,
      "self": 1200,
      "Ñĩ": 1201,
      "Ġproble": 1202,
      "ä¸": 1203,
      "ĠDe": 1204,
      "Ġhist": 1205,
      "Ġcour": 1206,
      "amp": 1207,
      "Ġdid": 1208,
      "Ġsaid": 1209,
      "ished": 1210,
      "rac": 1211,
      "Ġdown": 1212,
      "els": 1213,
      "bers": 1214,
      "ĠSc": 1215,
      "ash": 1216,
      "Ġthough": 1217,
      "ãģ": 1218,
      "ivid": 1219,
      "Ġmain": 1220,
      "Ġwater": 1221,
      "ÐµÐ½": 1222,
      "Ġsom": 1223,
      "Ġinformation": 1224,
      "Ġop": 1225,
      "idd": 1226,
      "Ġeng": 1227,
      "ross": 1228,
      "man": 1229,
      "lish": 1230,
      "ety": 1231,
      "Ġeffect": 1232,
      "Ġca": 1233,
      "ves": 1234,
      "ider": 1235,
      "ĠÐ²": 1236,
      "ands": 1237,
      "Ġgreat": 1238,
      "Ġthree": 1239,
      "Ġgood": 1240,
      "Ġpop": 1241,
      "Ġthink": 1242,
      "akes": 1243,
      "ode": 1244,
      "to": 1245,
      "Ġexample": 1246,
      "ern": 1247,
      "Ġx": 1248,
      "Ġlit": 1249,
      "ron": 1250,
      "Ġgiven": 1251,
      "Ġincre": 1252,
      "ters": 1253,
      "ames": 1254,
      "Ġaround": 1255,
      "Ġwant": 1256,
      "Ġfollowing": 1257,
      "ĠÐ¸": 1258,
      "--------": 1259,
      "ptions": 1260,
      "Ðº": 1261,
      "ĠThey": 1262,
      "Ġpat": 1263,
      "Ġbook": 1264,
      "ĠZ": 1265,
      "Ġdesign": 1266,
      "ĠAd": 1267,
      "ples": 1268,
      "port": 1269,
      "dition": 1270,
      "Ġweb": 1271,
      "Ġcontin": 1272,
      "Ġconf": 1273,
      "ury": 1274,
      "ton": 1275,
      "alk": 1276,
      "12": 1277,
      "Ġlist": 1278,
      "Ġwithin": 1279,
      "line": 1280,
      "Ġsmall": 1281,
      "Ġgra": 1282,
      "ital": 1283,
      "gg": 1284,
      "ĠInd": 1285,
      "ody": 1286,
      "ĠAnd": 1287,
      "ared": 1288,
      "Ġhealth": 1289,
      "oun": 1290,
      "18": 1291,
      "Ġpri": 1292,
      "Ġday": 1293,
      "ired": 1294,
      "oot": 1295,
      "Ġresp": 1296,
      "Ġfunction": 1297,
      "ense": 1298,
      "Ġgl": 1299,
      "ĠEx": 1300,
      "itive": 1301,
      "aj": 1302,
      "Ġla": 1303,
      "Ġrese": 1304,
      "Ġquestion": 1305,
      "ĠLe": 1306,
      "ĠEng": 1307,
      "Ġproduct": 1308,
      "Ġele": 1309,
      "Ġel": 1310,
      "Ġinclude": 1311,
      "Ġtake": 1312,
      "ouse": 1313,
      "ĠIs": 1314,
      "ization": 1315,
      "oid": 1316,
      "de": 1317,
      "Ġide": 1318,
      "Ġì": 1319,
      "Ġwithout": 1320,
      "ĠØ": 1321,
      "Ġpower": 1322,
      "Ġpresent": 1323,
      "Ġsupport": 1324,
      "Ġcare": 1325,
      "Ġfin": 1326,
      "Ġbel": 1327,
      "Ġallow": 1328,
      "Ġwom": 1329,
      "itions": 1330,
      "St": 1331,
      "}}": 1332,
      "ox": 1333,
      "iversity": 1334,
      "ĠÑģ": 1335,
      "Ð²": 1336,
      "ask": 1337,
      "angu": 1338,
      "',": 1339,
      "Ġmight": 1340,
      "ides": 1341,
      "ality": 1342,
      "Ġcharact": 1343,
      "Ġdel": 1344,
      "Ġtell": 1345,
      "ethod": 1346,
      "ĠCl": 1347,
      "arge": 1348,
      "Ġpass": 1349,
      "iron": 1350,
      "Ġword": 1351,
      "Ġdon": 1352,
      "Ġincluding": 1353,
      "Ġcalled": 1354,
      "Ġi": 1355,
      "ains": 1356,
      "iness": 1357,
      "_{": 1358,
      "ãĢ": 1359,
      "ator": 1360,
      "Ġlet": 1361,
      "Ġmus": 1362,
      "ann": 1363,
      "rol": 1364,
      "ining": 1365,
      "Ġsecond": 1366,
      "Ġbuild": 1367,
      "ulation": 1368,
      "Ġvari": 1369,
      "Ġoper": 1370,
      "Ġelect": 1371,
      "Ġ{": 1372,
      "Ġdetail": 1373,
      "Ġextract": 1374,
      "ption": 1375,
      "Ġinc": 1376,
      "\",": 1377,
      "ability": 1378,
      "Ġve": 1379,
      "itle": 1380,
      "ify": 1381,
      "erest": 1382,
      "ĠAmerican": 1383,
      "Ġperform": 1384,
      "imate": 1385,
      "Ġmust": 1386,
      "Ġline": 1387,
      "outh": 1388,
      "Ġ$$": 1389,
      "Ġknown": 1390,
      "arr": 1391,
      "Ġmet": 1392,
      "ocus": 1393,
      "Ġmov": 1394,
      "ering": 1395,
      "Ġgrow": 1396,
      "Ġprof": 1397,
      "Ġimportant": 1398,
      "Ġtest": 1399,
      "Ġpract": 1400,
      "âĢĶ": 1401,
      "\".": 1402,
      "ocial": 1403,
      "Ġlevel": 1404,
      "Ġadv": 1405,
      "Ġrun": 1406,
      "tt": 1407,
      "Ġvis": 1408,
      "11": 1409,
      "oss": 1410,
      "Ġsit": 1411,
      "Ġ,": 1412,
      "Ġorgan": 1413,
      "ĠCol": 1414,
      "Ġmean": 1415,
      "Ð¾Ð²": 1416,
      "Ġ12": 1417,
      "Ġplace": 1418,
      "ling": 1419,
      "Ġche": 1420,
      "50": 1421,
      "ane": 1422,
      "be": 1423,
      "less": 1424,
      "por": 1425,
      "iving": 1426,
      "ention": 1427,
      "riend": 1428,
      "ĠBut": 1429,
      "Ġabove": 1430,
      "Ġoften": 1431,
      "Wh": 1432,
      "Ġstill": 1433,
      "par": 1434,
      "Ġhere": 1435,
      "yn": 1436,
      "mb": 1437,
      "ON": 1438,
      "Ġes": 1439,
      "Ġsing": 1440,
      "ium": 1441,
      "Ġcle": 1442,
      "Ex": 1443,
      "Ġrele": 1444,
      "nect": 1445,
      "iddle": 1446,
      "Ġprot": 1447,
      "Ġbus": 1448,
      "Ġless": 1449,
      "Ġanother": 1450,
      "ek": 1451,
      "br": 1452,
      "ĠThere": 1453,
      "Ġz": 1454,
      "ior": 1455,
      "yle": 1456,
      "Ġstory": 1457,
      "cer": 1458,
      "ĠOr": 1459,
      "orth": 1460,
      "ories": 1461,
      "Ġanal": 1462,
      "ype": 1463,
      "Ġsl": 1464,
      "Ġbased": 1465,
      "ember": 1466,
      "Ġ198": 1467,
      "Ġstand": 1468,
      "Ġnon": 1469,
      "Ġmult": 1470,
      "viron": 1471,
      "Ġfocus": 1472,
      "Ġet": 1473,
      "ote": 1474,
      "ividual": 1475,
      "Ġdesc": 1476,
      "atic": 1477,
      "Ġbest": 1478,
      "resent": 1479,
      "Ġopen": 1480,
      "rem": 1481,
      "ĠPh": 1482,
      "right": 1483,
      "inc": 1484,
      "Ġtri": 1485,
      "Ġprom": 1486,
      "Ġcurrent": 1487,
      "Ġhand": 1488,
      "Ġcult": 1489,
      "Ġhuman": 1490,
      "Ġbeh": 1491,
      "Ġà": 1492,
      "Ġmethod": 1493,
      "Ġmark": 1494,
      "Ġorig": 1495,
      "uro": 1496,
      "Ġgroup": 1497,
      "Ġgr": 1498,
      "mon": 1499,
      "osed": 1500,
      "Ġeas": 1501,
      "ird": 1502,
      "nces": 1503,
      "çļ": 1504,
      "Ġpot": 1505,
      "ccess": 1506,
      "Ġagainst": 1507,
      "Ġinterest": 1508,
      "Ġhome": 1509,
      "Re": 1510,
      "math": 1511,
      "Ġpur": 1512,
      "book": 1513,
      "Ġteam": 1514,
      "Ġstre": 1515,
      "Ġter": 1516,
      "ĠÐ½": 1517,
      "çļĦ": 1518,
      "irc": 1519,
      "200": 1520,
      "Ġocc": 1521,
      "Ġlarge": 1522,
      "Ġrest": 1523,
      "ĠĠĠĠĠĠĠ": 1524,
      "Ġgover": 1525,
      "ertain": 1526,
      "Ġlast": 1527,
      "ï¼Į": 1528,
      "Ġcal": 1529,
      "for": 1530,
      "frac": 1531,
      "ĠSo": 1532,
      "Ñħ": 1533,
      "ĠSp": 1534,
      "Ġvar": 1535,
      "Ġpost": 1536,
      ".âĢĿ": 1537,
      "ways": 1538,
      "Ġname": 1539,
      "ĠTe": 1540,
      "Ġlangu": 1541,
      "16": 1542,
      "ration": 1543,
      "Ġcap": 1544,
      "ained": 1545,
      "ats": 1546,
      "15": 1547,
      "ĠPl": 1548,
      "Ġchildren": 1549,
      "app": 1550,
      "Ġident": 1551,
      "by": 1552,
      "sc": 1553,
      "This": 1554,
      "ina": 1555,
      "here": 1556,
      "ument": 1557,
      "Ġcommon": 1558,
      "Ġcourse": 1559,
      "of": 1560,
      "Ġ15": 1561,
      "Ġiss": 1562,
      "ially": 1563,
      "ething": 1564,
      "``": 1565,
      "Ġindividual": 1566,
      "ĠThese": 1567,
      "Ġspe": 1568,
      "13": 1569,
      "Ġpublic": 1570,
      "Ġ#": 1571,
      "rist": 1572,
      "ination": 1573,
      "Ġstudy": 1574,
      "ĠUnited": 1575,
      "ored": 1576,
      "Ġsince": 1577,
      "ified": 1578,
      "ived": 1579,
      "Ġcreat": 1580,
      "ograph": 1581,
      "Ġnext": 1582,
      "Ġcontent": 1583,
      "ĠBe": 1584,
      "Ġinvol": 1585,
      "ĠUniversity": 1586,
      "###": 1587,
      "Ġgovern": 1588,
      "val": 1589,
      "Ġtem": 1590,
      "Ġtyp": 1591,
      "Ġarea": 1592,
      "Ġaccess": 1593,
      "ique": 1594,
      "Ġaff": 1595,
      "17": 1596,
      "ball": 1597,
      "lo": 1598,
      "Ġunt": 1599,
      "ole": 1600,
      "Ġopp": 1601,
      "Ġchang": 1602,
      "Ġactiv": 1603,
      "ray": 1604,
      "Ġconcept": 1605,
      "}{": 1606,
      "Ġproper": 1607,
      "ots": 1608,
      "ĠÐ¾": 1609,
      "ĊĠĠĠ": 1610,
      "Ġ**": 1611,
      "ĠDo": 1612,
      "Ġsever": 1613,
      "ances": 1614,
      "Ġhead": 1615,
      "Ġfood": 1616,
      "iting": 1617,
      "14": 1618,
      "Ġtoo": 1619,
      "Ġhapp": 1620,
      "Ġintrodu": 1621,
      "lished": 1622,
      "Ġsay": 1623,
      "Ġfew": 1624,
      "Ġmodel": 1625,
      "Ġ:": 1626,
      "Ġlight": 1627,
      "ilar": 1628,
      "ĠCan": 1629,
      "Ġcase": 1630,
      "Ð´": 1631,
      "Ġorder": 1632,
      "ĠFr": 1633,
      "olution": 1634,
      "TI": 1635,
      "Ġsomething": 1636,
      "reen": 1637,
      "Ġ16": 1638,
      "Ġlaw": 1639,
      "ĠHowever": 1640,
      "ma": 1641,
      "Ġener": 1642,
      "Ġyoung": 1643,
      "cul": 1644,
      "ently": 1645,
      "Ġfour": 1646,
      "hor": 1647,
      "ĠÙ": 1648,
      "Ġbro": 1649,
      "âĢľ": 1650,
      "ĠNo": 1651,
      "Ġfamily": 1652,
      "Ġleg": 1653,
      "rop": 1654,
      "Ġ17": 1655,
      "ided": 1656,
      "Ġprogram": 1657,
      "Ġchange": 1658,
      "iver": 1659,
      "vironment": 1660,
      "med": 1661,
      "Ġplan": 1662,
      "aterial": 1663,
      "Ġold": 1664,
      "ateg": 1665,
      "Ġseveral": 1666,
      "Ġbetter": 1667,
      "||": 1668,
      "Ġredu": 1669,
      "ries": 1670,
      "Ġproject": 1671,
      "Ġfac": 1672,
      "orld": 1673,
      "elf": 1674,
      "ee": 1675,
      "Ġer": 1676,
      "ĠÐº": 1677,
      "Ġfield": 1678,
      "lu": 1679,
      "ead": 1680,
      "à¸": 1681,
      "Ġsignific": 1682,
      "Ġfriend": 1683,
      "ards": 1684,
      "ording": 1685,
      "iod": 1686,
      "Ġvalue": 1687,
      "ĠShe": 1688,
      "Ġ197": 1689,
      "Ġbas": 1690,
      "Ġfeel": 1691,
      "ĠTo": 1692,
      "Ġbre": 1693,
      "ene": 1694,
      "ym": 1695,
      "Ã³": 1696,
      "Ġproblem": 1697,
      "rite": 1698,
      "orts": 1699,
      "ĠBy": 1700,
      "min": 1701,
      "work": 1702,
      "Ġphys": 1703,
      "Ġalong": 1704,
      "Ġbo": 1705,
      "Ġlearn": 1706,
      "ledge": 1707,
      "Ġmiddle": 1708,
      "^{": 1709,
      "Ġmeas": 1710,
      "Ġrelated": 1711,
      "atch": 1712,
      "Ġresearch": 1713,
      "Ð¼": 1714,
      "conom": 1715,
      "30": 1716,
      "wards": 1717,
      "ĠOn": 1718,
      "ians": 1719,
      "ĠX": 1720,
      "ER": 1721,
      "Ġbelie": 1722,
      "Ġsubject": 1723,
      "urther": 1724,
      "ery": 1725,
      "ission": 1726,
      "ency": 1727,
      "Ġsocial": 1728,
      "Ġdra": 1729,
      "Ġeduc": 1730,
      "Ã¡": 1731,
      "Ð°Ð½": 1732,
      "ÐµÑĢ": 1733,
      "ware": 1734,
      "ources": 1735,
      "Ġlim": 1736,
      "Ġdue": 1737,
      "Ch": 1738,
      "Ġkeep": 1739,
      "ÛĮ": 1740,
      ");": 1741,
      "Ġnear": 1742,
      "atural": 1743,
      "Ġvarious": 1744,
      "pro": 1745,
      "agn": 1746,
      "Ġlater": 1747,
      "ĠRes": 1748,
      "Ġobject": 1749,
      "Ġenergy": 1750,
      "Ġuntil": 1751,
      "ĠWhat": 1752,
      "}$": 1753,
      "Ġthings": 1754,
      "ĠBl": 1755,
      "ES": 1756,
      "Ġmove": 1757,
      "Ġtry": 1758,
      "Ġstruct": 1759,
      "Ġstep": 1760,
      "isc": 1761,
      "aging": 1762,
      "Ġconsider": 1763,
      "Ġbody": 1764,
      "icle": 1765,
      "Ġimpro": 1766,
      "It": 1767,
      "We": 1768,
      "ope": 1769,
      "Ġcho": 1770,
      "mber": 1771,
      "ajor": 1772,
      "Ġ$\\": 1773,
      "Ġprovide": 1774,
      "ÐµÑĤ": 1775,
      "ĠAt": 1776,
      "Ġgame": 1777,
      "Ġreview": 1778,
      "not": 1779,
      "Ġyes": 1780,
      "ĠWhen": 1781,
      "ta": 1782,
      "ental": 1783,
      "ths": 1784,
      "Ġcr": 1785,
      "Ġrece": 1786,
      "Ġlocal": 1787,
      "ĠStates": 1788,
      "Ġmeans": 1789,
      "Ġsuccess": 1790,
      "Ġhistory": 1791,
      "ferences": 1792,
      "Ġtre": 1793,
      "//": 1794,
      "ipp": 1795,
      "Ġbusiness": 1796,
      "ape": 1797,
      "ills": 1798,
      "As": 1799,
      "ised": 1800,
      "Ġtreat": 1801,
      "Ġcharacter": 1802,
      "ĠTr": 1803,
      "Options": 1804,
      "ternal": 1805,
      "une": 1806,
      "ression": 1807,
      "Ġcomput": 1808,
      "Ġtoget": 1809,
      "Ġtogether": 1810,
      "play": 1811,
      "Ġcell": 1812,
      "Ġchall": 1813,
      "Ġ*": 1814,
      "ĠJoh": 1815,
      "rect": 1816,
      "Ġdev": 1817,
      "Ġcreate": 1818,
      "ĠMar": 1819,
      "Ġlanguage": 1820,
      "Ġsentence": 1821,
      "utions": 1822,
      "ext": 1823,
      "Ġ<": 1824,
      "Ġmaterial": 1825,
      "Ġrepresent": 1826,
      "mit": 1827,
      "Ġbeg": 1828,
      "Ġris": 1829,
      "):": 1830,
      "Ġcontrol": 1831,
      "Ġseem": 1832,
      "Ġparticular": 1833,
      "Ġpo": 1834,
      "Ġleft": 1835,
      "Ġ14": 1836,
      ",\"": 1837,
      "ource": 1838,
      "ological": 1839,
      "let": 1840,
      "Ġunit": 1841,
      "ley": 1842,
      "Ġbecome": 1843,
      "use": 1844,
      "ended": 1845,
      "aining": 1846,
      "Ġinteg": 1847,
      "Ġtimes": 1848,
      "Ġavail": 1849,
      "Ġaddition": 1850,
      "ids": 1851,
      "Ġair": 1852,
      "Ġmaking": 1853,
      "Ġamong": 1854,
      "illion": 1855,
      "ploy": 1856,
      "oring": 1857,
      "ung": 1858,
      "sh": 1859,
      "ĠAll": 1860,
      "ler": 1861,
      "Ġcolle": 1862,
      "Ġcomb": 1863,
      "thing": 1864,
      "Ġearly": 1865,
      "oms": 1866,
      "Ġmil": 1867,
      "Ġcost": 1868,
      "Ġcomplex": 1869,
      "Ġothers": 1870,
      "Ġlo": 1871,
      "22": 1872,
      "ued": 1873,
      "Ġunderstanding": 1874,
      "ai": 1875,
      "Ġcome": 1876,
      "Ġfre": 1877,
      "Ġenc": 1878,
      "ference": 1879,
      "Ġreturn": 1880,
      "Ġë": 1881,
      "vious": 1882,
      "Ġalways": 1883,
      "Ġfree": 1884,
      "Ġmen": 1885,
      "Ġpolit": 1886,
      "hers": 1887,
      "ively": 1888,
      "Ġsum": 1889,
      "aces": 1890,
      "arent": 1891,
      "ĠHere": 1892,
      "Ġant": 1893,
      "aster": 1894,
      "Ġrecord": 1895,
      "ÃŃ": 1896,
      "Ġcrit": 1897,
      "Ġspace": 1898,
      "Ġview": 1899,
      "âĢ¦": 1900,
      "mp": 1901,
      "ients": 1902,
      "Ġshort": 1903,
      "ĠÐ´": 1904,
      "Ġestab": 1905,
      "eter": 1906,
      "Ġask": 1907,
      "Ġpotential": 1908,
      "text": 1909,
      "ternational": 1910,
      "ffic": 1911,
      "ogn": 1912,
      "Ġtype": 1913,
      "Ġvol": 1914,
      "ney": 1915,
      "Ġseries": 1916,
      "Ġmar": 1917,
      "Ġdevelopment": 1918,
      "aring": 1919,
      "ending": 1920,
      "Ġknowledge": 1921,
      "cing": 1922,
      "aper": 1923,
      "istic": 1924,
      "Ġmusic": 1925,
      "ales": 1926,
      "ĠChrist": 1927,
      "Ġvers": 1928,
      "ìĿ": 1929,
      "Ġ196": 1930,
      "ĠMay": 1931,
      "Ġenvironment": 1932,
      "othes": 1933,
      "estions": 1934,
      "Ġtitle": 1935,
      "Ġinvest": 1936,
      "iam": 1937,
      "ected": 1938,
      "Ġrelations": 1939,
      "Ø±": 1940,
      "Ġwhy": 1941,
      "Ġdri": 1942,
      "Ġess": 1943,
      "wh": 1944,
      "Ġsignificant": 1945,
      "Ġgoing": 1946,
      "Ġfore": 1947,
      "Ð¿": 1948,
      "Ġver": 1949,
      "pos": 1950,
      "Ġsw": 1951,
      "Ġperiod": 1952,
      "Ġput": 1953,
      "Ġdiscuss": 1954,
      "Ñİ": 1955,
      "ÙĨ": 1956,
      "augh": 1957,
      "my": 1958,
      "plic": 1959,
      "Ġlittle": 1960,
      "ither": 1961,
      "str": 1962,
      "Ġ`": 1963,
      "Ġspecial": 1964,
      "âĪ": 1965,
      "Ġconnect": 1966,
      "Ġ13": 1967,
      "urs": 1968,
      "ĠEuro": 1969,
      "abor": 1970,
      "fer": 1971,
      "Ġhard": 1972,
      "side": 1973,
      "Ġwomen": 1974,
      "ĠQu": 1975,
      "verage": 1976,
      "Ġrad": 1977,
      "Ġspecific": 1978,
      "aut": 1979,
      "ĠÃ": 1980,
      "à¦": 1981,
      "Ġapproach": 1982,
      "ĠBrit": 1983,
      "ights": 1984,
      "Ð¾ÑĢ": 1985,
      "Ġacross": 1986,
      "Ġappear": 1987,
      "Ġens": 1988,
      "clus": 1989,
      "Ġavailable": 1990,
      "Ð¾Ð»": 1991,
      "äº": 1992,
      "ĠWorld": 1993,
      "ĠâĢĺ": 1994,
      "ĠCent": 1995,
      "Ġlow": 1996,
      "though": 1997,
      "ably": 1998,
      "ott": 1999,
      "ours": 2000,
      "Ġtot": 2001,
      "ample": 2002,
      "Ġnet": 2003,
      "Ġreport": 2004,
      "Ġben": 2005,
      "Ġkey": 2006,
      "rict": 2007,
      "ÑĨ": 2008,
      "Ġpain": 2009,
      "agement": 2010,
      "ĠEnglish": 2011,
      "ysis": 2012,
      "Ä±": 2013,
      "Ġmajor": 2014,
      "Ġapplic": 2015,
      "Ġlearning": 2016,
      "}\\": 2017,
      "Ġgen": 2018,
      "aim": 2019,
      "ured": 2020,
      "ober": 2021,
      "Ġevent": 2022,
      "Ġgovernment": 2023,
      "Ġsimilar": 2024,
      "Ġsingle": 2025,
      "Ġdeterm": 2026,
      "Ġhold": 2027,
      "ortun": 2028,
      "rain": 2029,
      "Ġwar": 2030,
      "Ġeconom": 2031,
      "Ġdescrib": 2032,
      "ables": 2033,
      "Ġ30": 2034,
      "Ġgive": 2035,
      "Ġcertain": 2036,
      "Ð°ÑĤ": 2037,
      "ourn": 2038,
      "lement": 2039,
      "Ġanim": 2040,
      "Ġhig": 2041,
      "ĠCar": 2042,
      "Ġthought": 2043,
      "yl": 2044,
      "ĊĠĠĠĠĠĠĠĠ": 2045,
      "ror": 2046,
      "iate": 2047,
      "rap": 2048,
      "eb": 2049,
      "Ġneg": 2050,
      "Ġbecame": 2051,
      "duct": 2052,
      "Ġworks": 2053,
      "åı": 2054,
      "enn": 2055,
      "uture": 2056,
      "pre": 2057,
      "Ġside": 2058,
      "Ġcaus": 2059,
      "ĠUS": 2060,
      "ĠThat": 2061,
      "Ġprior": 2062,
      "Ġprob": 2063,
      "Ġfr": 2064,
      "Ġreally": 2065,
      "ĠOne": 2066,
      "Ġtrue": 2067,
      "Ġexist": 2068,
      "ilities": 2069,
      "Ġwin": 2070,
      "Ġself": 2071,
      "Ġwords": 2072,
      "aps": 2073,
      "ences": 2074,
      "21": 2075,
      "Ġnatural": 2076,
      "ĠMan": 2077,
      "25": 2078,
      "Ġdirectly": 2079,
      "ĠâĢĶ": 2080,
      "Ġhaving": 2081,
      "Ġobs": 2082,
      "Ġinit": 2083,
      "23": 2084,
      "99": 2085,
      "Ġtextbook": 2086,
      "ĠInst": 2087,
      "ä»": 2088,
      "eral": 2089,
      "inks": 2090,
      "'re": 2091,
      "sy": 2092,
      "Ġassoci": 2093,
      "____": 2094,
      "Ġnever": 2095,
      "idence": 2096,
      "ĠÐ¿ÑĢ": 2097,
      "Ġresults": 2098,
      "att": 2099,
      "ĠWar": 2100,
      "face": 2101,
      "atures": 2102,
      "omm": 2103,
      "ones": 2104,
      "ĠWith": 2105,
      "Ġprofess": 2106,
      "ators": 2107,
      "ush": 2108,
      "Ġland": 2109,
      "ĠNational": 2110,
      "ibr": 2111,
      "ĠEurope": 2112,
      "Ġfull": 2113,
      "oph": 2114,
      "ĠEn": 2115,
      "Ġdem": 2116,
      "Ġterm": 2117,
      "ditions": 2118,
      "Ġexamples": 2119,
      "Ð½Ñĭ": 2120,
      "Ġcity": 2121,
      "osp": 2122,
      "Ġcountry": 2123,
      "ĠÂ": 2124,
      "amed": 2125,
      "Ġ11": 2126,
      "Ġsaf": 2127,
      "Ġable": 2128,
      "Ġnarr": 2129,
      "ĠÐ¼": 2130,
      "Ġsystems": 2131,
      "ãĢĤ": 2132,
      "Ġpast": 2133,
      "Ġann": 2134,
      "oney": 2135,
      "ume": 2136,
      "utes": 2137,
      ",âĢĿ": 2138,
      "ĠSu": 2139,
      "Ġrole": 2140,
      "left": 2141,
      "ĊĠĠĠĠĠĠĠ": 2142,
      "Ġgeneral": 2143,
      "Ġdays": 2144,
      "Ġtask": 2145,
      "Ġfilm": 2146,
      "ĠGerm": 2147,
      "Ġstrong": 2148,
      "IN": 2149,
      "Ġcirc": 2150,
      "40": 2151,
      "ypothes": 2152,
      "Ġcommunity": 2153,
      "If": 2154,
      "Ġworking": 2155,
      "ged": 2156,
      "Ġexperience": 2157,
      "Ġque": 2158,
      "Ġaway": 2159,
      "TION": 2160,
      "ÙĦ": 2161,
      "izing": 2162,
      "ĠCal": 2163,
      "iple": 2164,
      "ĠAust": 2165,
      "Ġturn": 2166,
      "Ġfar": 2167,
      "sp": 2168,
      "af": 2169,
      "asing": 2170,
      "An": 2171,
      "alf": 2172,
      "Ġmot": 2173,
      "Ġnecess": 2174,
      "ctions": 2175,
      "Ġdiff": 2176,
      "ĠAm": 2177,
      "ĠSy": 2178,
      "ges": 2179,
      "ze": 2180,
      "ĠGe": 2181,
      "Ġpress": 2182,
      "Ġbig": 2183,
      "ĠAf": 2184,
      "ĠPr": 2185,
      "Ġcontrib": 2186,
      "apt": 2187,
      "Ġcomplete": 2188,
      "Ġseason": 2189,
      "à¥": 2190,
      "ilt": 2191,
      "ustom": 2192,
      "ĠÑĤ": 2193,
      "omet": 2194,
      "uck": 2195,
      "ĠJohn": 2196,
      "Ġrespect": 2197,
      "ols": 2198,
      "Ġauthor": 2199,
      "clude": 2200,
      "Ġsugg": 2201,
      "amb": 2202,
      "Ġbi": 2203,
      "Ð½Ð¾": 2204,
      "ĠComm": 2205,
      "==": 2206,
      "Ġreason": 2207,
      "ĠAb": 2208,
      "Ġmembers": 2209,
      "ison": 2210,
      "Ġtotal": 2211,
      "rad": 2212,
      "Ġoffic": 2213,
      "Ġlove": 2214,
      "ĠIm": 2215,
      "Ġdeath": 2216,
      "ĠPol": 2217,
      "Ġleast": 2218,
      "ypothesis": 2219,
      "Ġpositive": 2220,
      "Ġcompany": 2221,
      "irl": 2222,
      "AR": 2223,
      "etic": 2224,
      "ctor": 2225,
      "Ġarg": 2226,
      "Ġlog": 2227,
      "Ġbelow": 2228,
      "Al": 2229,
      "apter": 2230,
      "Ð¸ÑĤ": 2231,
      "ada": 2232,
      "ĠGu": 2233,
      "ãĤ": 2234,
      "Ġtoday": 2235,
      "Ġsure": 2236,
      "Ġindust": 2237,
      "Ġfuture": 2238,
      "Ġpub": 2239,
      "Ġtw": 2240,
      "Ġfoot": 2241,
      "Ġsitu": 2242,
      "ival": 2243,
      "ule": 2244,
      "Ġpoints": 2245,
      "Ġkind": 2246,
      "ivity": 2247,
      "Ð¸Ñı": 2248,
      "Ġexc": 2249,
      "erc": 2250,
      "Ġwriting": 2251,
      "ĠApp": 2252,
      "iction": 2253,
      "Ġsimple": 2254,
      "Ġdom": 2255,
      "Ġclear": 2256,
      "Ġvalues": 2257,
      "Ġmakes": 2258,
      "Ġdise": 2259,
      "Ġwhether": 2260,
      "Ġrespons": 2261,
      "ruction": 2262,
      "Ġrelationship": 2263,
      "ĠMed": 2264,
      "Ġweek": 2265,
      "ising": 2266,
      "epend": 2267,
      "ification": 2268,
      "Ġpersonal": 2269,
      "Ġcode": 2270,
      "Ġsense": 2271,
      "iation": 2272,
      "Ġey": 2273,
      "ches": 2274,
      "iding": 2275,
      "aken": 2276,
      "hern": 2277,
      "Ġstat": 2278,
      "Ġever": 2279,
      "Ġred": 2280,
      "verse": 2281,
      "Ġtopic": 2282,
      "Ġflow": 2283,
      "Ġfurther": 2284,
      "ster": 2285,
      "24": 2286,
      "Ð¾Ð¼": 2287,
      "à®": 2288,
      "ump": 2289,
      "Ġcorrect": 2290,
      "lease": 2291,
      "Ġbenef": 2292,
      "Ġphot": 2293,
      "Ġquestions": 2294,
      "ensive": 2295,
      "Ġlarg": 2296,
      "iences": 2297,
      "chie": 2298,
      "Ġinflu": 2299,
      "Ġareas": 2300,
      "urch": 2301,
      "ĠYork": 2302,
      "illed": 2303,
      "Ġage": 2304,
      "Ġnorm": 2305,
      "Ġà¤": 2306,
      "Ġbegin": 2307,
      "Ġmass": 2308,
      "Ġbuilding": 2309,
      "Ġimpact": 2310,
      "Ġavoid": 2311,
      "Ġupon": 2312,
      "Ġchalleng": 2313,
      "ring": 2314,
      "ĠAss": 2315,
      "cial": 2316,
      "Ð¾Ð´": 2317,
      "Ġmarket": 2318,
      "ideo": 2319,
      "ww": 2320,
      "ĠJan": 2321,
      "Ġproblems": 2322,
      "What": 2323,
      "ĠAfter": 2324,
      "ibility": 2325,
      "ĠMe": 2326,
      "Ġsound": 2327,
      "Ã¼": 2328,
      "æľ": 2329,
      "Ġdetailed": 2330,
      "ĠSouth": 2331,
      "Ġsuper": 2332,
      "ÑĪ": 2333,
      "Ġdistrib": 2334,
      "Ġdr": 2335,
      "Ġjob": 2336,
      "Ġopt": 2337,
      "Ġoriginal": 2338,
      "rel": 2339,
      "Ġprim": 2340,
      "ociety": 2341,
      "Ġmention": 2342,
      "obal": 2343,
      "Ġ25": 2344,
      "ĠRep": 2345,
      "ese": 2346,
      "Ġpred": 2347,
      "rm": 2348,
      "Ġcompet": 2349,
      "ister": 2350,
      "Ġhouse": 2351,
      "Ġhy": 2352,
      "ĠReg": 2353,
      "Ġemb": 2354,
      "Ġenough": 2355,
      "Ġdig": 2356,
      "Ġcentury": 2357,
      "bs": 2358,
      "part": 2359,
      "Ġ100": 2360,
      "nswer": 2361,
      "ication": 2362,
      "co": 2363,
      "ming": 2364,
      "bo": 2365,
      "Ġinteract": 2366,
      "Ġrange": 2367,
      "roll": 2368,
      "))": 2369,
      "yth": 2370,
      "Ġhistor": 2371,
      "Ġmom": 2372,
      "Ġneeds": 2373,
      "cle": 2374,
      "Ġclose": 2375,
      "apan": 2376,
      "ript": 2377,
      "Ġnumbers": 2378,
      "Ġunique": 2379,
      "ĠCont": 2380,
      "Ġconcepts": 2381,
      "ires": 2382,
      "ĠSchool": 2383,
      "oon": 2384,
      "Ġemploy": 2385,
      "ips": 2386,
      "ĠÑĢ": 2387,
      "ready": 2388,
      "Ð¾Ð³": 2389,
      "Ġaccount": 2390,
      "bum": 2391,
      "Ð°Ð»": 2392,
      "Ġamount": 2393,
      "Ġtradition": 2394,
      "There": 2395,
      "Ġinput": 2396,
      "://": 2397,
      "For": 2398,
      "atter": 2399,
      "Ġmind": 2400,
      "AT": 2401,
      "lex": 2402,
      "Ġpers": 2403,
      "sequ": 2404,
      "Ġmatter": 2405,
      "Ġdoc": 2406,
      "ĠInt": 2407,
      "Ġphr": 2408,
      "ength": 2409,
      "ĠNorth": 2410,
      "Ġpay": 2411,
      "gen": 2412,
      "Ġtook": 2413,
      "raft": 2414,
      "Ġmeet": 2415,
      "Ø¯": 2416,
      "Ġbehav": 2417,
      "ae": 2418,
      "most": 2419,
      "Ġeither": 2420,
      "Ġfund": 2421,
      "ging": 2422,
      "Ġill": 2423,
      "icro": 2424,
      "ĠLet": 2425,
      "ĠPar": 2426,
      "Ġbir": 2427,
      "icult": 2428,
      "ĠCo": 2429,
      "Ġrequire": 2430,
      "selves": 2431,
      "Ġsize": 2432,
      "Ġdoesn": 2433,
      "Ġ}": 2434,
      "ÙĪ": 2435,
      "ĠYour": 2436,
      "Ġonline": 2437,
      "Ġfive": 2438,
      "ched": 2439,
      "Ġonce": 2440,
      "Ġstyle": 2441,
      "ĠEar": 2442,
      "Ġchanges": 2443,
      "ĠGod": 2444,
      "Ġscient": 2445,
      "lev": 2446,
      "icy": 2447,
      "Ġfinal": 2448,
      "Ġsqu": 2449,
      "References": 2450,
      "To": 2451,
      "Ġrepl": 2452,
      "inary": 2453,
      "Ġcalcul": 2454,
      "ows": 2455,
      "Ġservice": 2456,
      "ÐµÐ»": 2457,
      "II": 2458,
      "Ġways": 2459,
      "----------------": 2460,
      "Ġprop": 2461,
      "org": 2462,
      "AS": 2463,
      "Ġdeg": 2464,
      "Ġcoll": 2465,
      "Ġtalk": 2466,
      "che": 2467,
      "AN": 2468,
      "Ġprevious": 2469,
      "Ġgot": 2470,
      "oura": 2471,
      "Ġpopulation": 2472,
      "Ġsong": 2473,
      "aced": 2474,
      "Ġaddress": 2475,
      "reg": 2476,
      "ream": 2477,
      "Ġideas": 2478,
      "How": 2479,
      "Ġevents": 2480,
      "ĠCount": 2481,
      "acy": 2482,
      "Ġsuggest": 2483,
      "aves": 2484,
      "Ġlot": 2485,
      "Ġblack": 2486,
      "Ġalready": 2487,
      "Ġcame": 2488,
      "omes": 2489,
      "ague": 2490,
      "ero": 2491,
      "Ġground": 2492,
      "iet": 2493,
      "son": 2494,
      "199": 2495,
      "Ġheart": 2496,
      "irt": 2497,
      "Ġstra": 2498,
      "Ġgroups": 2499,
      "Ġwon": 2500,
      "ailed": 2501,
      "You": 2502,
      "Qu": 2503,
      "ĊĠ": 2504,
      "Ġport": 2505,
      "Ġsays": 2506,
      "Ġconditions": 2507,
      "ĠSome": 2508,
      "Ġterms": 2509,
      "ger": 2510,
      "Ġlay": 2511,
      "Ġissues": 2512,
      "Ġder": 2513,
      "lying": 2514,
      "Ġcustom": 2515,
      "Ġstudies": 2516,
      "ĠState": 2517,
      "ĠBritish": 2518,
      "ude": 2519,
      "Ġsomeone": 2520,
      "Ġfig": 2521,
      "Ġwoman": 2522,
      "Ġobserv": 2523,
      "ĠBr": 2524,
      "rix": 2525,
      "àª": 2526,
      "Ġcollect": 2527,
      "ried": 2528,
      "overed": 2529,
      "ĠDes": 2530,
      "iment": 2531,
      "pecially": 2532,
      "ĠEd": 2533,
      "Ùĩ": 2534,
      "60": 2535,
      "Ġnarrative": 2536,
      "Ġhowever": 2537,
      "ĠHis": 2538,
      "Ġtechnology": 2539,
      "rew": 2540,
      "Ġpopular": 2541,
      "ĠAug": 2542,
      "Ġtemper": 2543,
      "Ġwind": 2544,
      "Ġrisk": 2545,
      "à°": 2546,
      "Ġbegan": 2547,
      "Ġlab": 2548,
      "ĠAfric": 2549,
      "Ġfriends": 2550,
      "Ġlive": 2551,
      "EN": 2552,
      "ĠNe": 2553,
      "Ġpercent": 2554,
      "Ð±": 2555,
      "Ġmodern": 2556,
      "Ġabs": 2557,
      "Ð·": 2558,
      "Ġmoney": 2559,
      "OR": 2560,
      "ĠPart": 2561,
      "Ġmillion": 2562,
      "Ġep": 2563,
      "Ð¾ÑĤ": 2564,
      "Ġrather": 2565,
      "asc": 2566,
      "Ġmaint": 2567,
      "Ġpie": 2568,
      "anced": 2569,
      "Ġachie": 2570,
      "urity": 2571,
      "Ġwritten": 2572,
      "uary": 2573,
      "Ġsat": 2574,
      "Ġge": 2575,
      "Ġsens": 2576,
      "Ġsite": 2577,
      "Ġyet": 2578,
      "atory": 2579,
      "Ġanalysis": 2580,
      "back": 2581,
      "go": 2582,
      "Ġpaper": 2583,
      "Ġ24": 2584,
      "Ġdefin": 2585,
      "Ġsoft": 2586,
      "bl": 2587,
      "iol": 2588,
      "Ġlinks": 2589,
      "Ġrecogn": 2590,
      "Ġparticip": 2591,
      "Ġengine": 2592,
      "Ġpath": 2593,
      "ĠJapan": 2594,
      "atives": 2595,
      "Ġservices": 2596,
      "Ġclaim": 2597,
      "ey": 2598,
      "Ġrecent": 2599,
      "ography": 2600,
      "à´": 2601,
      "ened": 2602,
      "lt": 2603,
      "ĠJu": 2604,
      "Ġindic": 2605,
      "fully": 2606,
      "Ġdone": 2607,
      "empt": 2608,
      "dom": 2609,
      "set": 2610,
      "Ġposition": 2611,
      "Ġusually": 2612,
      "ground": 2613,
      "Ġtypes": 2614,
      "Ġspecies": 2615,
      "Ġopportun": 2616,
      "ournal": 2617,
      "Ġ194": 2618,
      "ĠStud": 2619,
      "Ġseen": 2620,
      "oll": 2621,
      "Ġnature": 2622,
      "ops": 2623,
      "Ġessential": 2624,
      "80": 2625,
      "Ġeducation": 2626,
      "Ġsolution": 2627,
      "Øª": 2628,
      "Ġrate": 2629,
      "aff": 2630,
      "na": 2631,
      "Ġimm": 2632,
      "fact": 2633,
      "Ġhigher": 2634,
      "On": 2635,
      "ĠOct": 2636,
      "Ġprem": 2637,
      "chan": 2638,
      "Ġcause": 2639,
      "ift": 2640,
      "()": 2641,
      "Ġtowards": 2642,
      "Ġgames": 2643,
      "Ġdeb": 2644,
      "uk": 2645,
      "lor": 2646,
      "aries": 2647,
      "ulations": 2648,
      "Ġcheck": 2649,
      "ends": 2650,
      "Ġscience": 2651,
      "Ġimprove": 2652,
      "Ġ--": 2653,
      "Ġlooking": 2654,
      "ĠØ§": 2655,
      "rown": 2656,
      "Ġcannot": 2657,
      "Ġconsid": 2658,
      "hemat": 2659,
      "Ġnational": 2660,
      "Ġinstead": 2661,
      "ony": 2662,
      "ĠMin": 2663,
      "Ġtransl": 2664,
      "ules": 2665,
      "åħ": 2666,
      "ĠAustral": 2667,
      "Ġhalf": 2668,
      "Ġcreated": 2669,
      "ãĥ": 2670,
      "Ġcontext": 2671,
      "ĠTra": 2672,
      "aching": 2673,
      "ĠĠĠĠĠĠĠĠĠĠĠĠĠĠĠĠ": 2674,
      "Ġfrequ": 2675,
      "Ġalbum": 2676,
      "ement": 2677,
      "me": 2678,
      "Ġsepar": 2679,
      "Ġdifficult": 2680,
      "ino": 2681,
      "ores": 2682,
      "Pro": 2683,
      "like": 2684,
      "itary": 2685,
      "'m": 2686,
      "ĠAct": 2687,
      "rench": 2688,
      "fect": 2689,
      "page": 2690,
      "ä½": 2691,
      "Ġcomes": 2692,
      "Ġbreak": 2693,
      "ites": 2694,
      "Ġelements": 2695,
      "ĠPer": 2696,
      "Ġdeep": 2697,
      "Ġtravel": 2698,
      "Ġfall": 2699,
      "Ġcy": 2700,
      "tic": 2701,
      "adem": 2702,
      "Ġmor": 2703,
      "umb": 2704,
      "urb": 2705,
      "Ġthroughout": 2706,
      "Ð°Ðº": 2707,
      "Ġphysical": 2708,
      "Ġincrease": 2709,
      "ĠÑ": 2710,
      "ises": 2711,
      "ura": 2712,
      "Ġarch": 2713,
      "ille": 2714,
      "....": 2715,
      "Ġri": 2716,
      "Ġparent": 2717,
      "aches": 2718,
      "arc": 2719,
      "Ġmess": 2720,
      "idge": 2721,
      "Ġregard": 2722,
      "Ð¸Ðµ": 2723,
      "ÐµÐ¼": 2724,
      "Is": 2725,
      "ĠKing": 2726,
      "Ġdiv": 2727,
      "Ġ)": 2728,
      "ately": 2729,
      "Ġ50": 2730,
      "Ġquick": 2731,
      "Ġreact": 2732,
      "åĪ": 2733,
      "Ġliter": 2734,
      "Ġoutput": 2735,
      "Ġblood": 2736,
      "Ġcut": 2737,
      "Ġplayers": 2738,
      "Ġgrowth": 2739,
      "entence": 2740,
      "avor": 2741,
      "Ġprevent": 2742,
      "Ġidea": 2743,
      "ĠMy": 2744,
      "rec": 2745,
      "Ġlevels": 2746,
      "Ġfile": 2747,
      "Ġespecially": 2748,
      "Ùħ": 2749,
      "Ġstarted": 2750,
      "Ġpriv": 2751,
      ".)": 2752,
      "ĠEl": 2753,
      "Ġcamp": 2754,
      "iques": 2755,
      "Ġperformance": 2756,
      "rams": 2757,
      "onse": 2758,
      "Ġang": 2759,
      "Ġaction": 2760,
      "joy": 2761,
      "Ġlikely": 2762,
      "aged": 2763,
      "Ġshare": 2764,
      "ĠWill": 2765,
      "Ġentire": 2766,
      "ender": 2767,
      "sych": 2768,
      "Ġactually": 2769,
      "Ġthird": 2770,
      "ĠBar": 2771,
      "Ġselect": 2772,
      "ana": 2773,
      "Ġjo": 2774,
      "'ll": 2775,
      "Ġproduction": 2776,
      "imens": 2777,
      "Ġprinc": 2778,
      "çĶ": 2779,
      "elling": 2780,
      "ĠApr": 2781,
      "Ġ2006": 2782,
      "Ġlower": 2783,
      "Ġut": 2784,
      "ening": 2785,
      "itor": 2786,
      "Ġdog": 2787,
      "27": 2788,
      "AL": 2789,
      "dd": 2790,
      "Ġâ": 2791,
      "```": 2792,
      "Ġshows": 2793,
      "Ġwrite": 2794,
      "Ġexpress": 2795,
      "Ġquality": 2796,
      "Ġnegative": 2797,
      "uted": 2798,
      "imum": 2799,
      "Ġexplan": 2800,
      "ula": 2801,
      "Ġindividuals": 2802,
      "aving": 2803,
      "Ġtaking": 2804,
      "Ġwhite": 2805,
      "imal": 2806,
      "Ġvideo": 2807,
      "new": 2808,
      "Ġmeaning": 2809,
      "Ġbound": 2810,
      "Ġwa": 2811,
      "Ġtheory": 2812,
      "Ġarticle": 2813,
      "ners": 2814,
      "**:": 2815,
      "Ġassociated": 2816,
      "Ġpolitical": 2817,
      "0000": 2818,
      "Ġstates": 2819,
      "Ġdest": 2820,
      "Ġnamed": 2821,
      "He": 2822,
      "ĠÐ·": 2823,
      "ĠCity": 2824,
      "Ġcop": 2825,
      "light": 2826,
      "Ġconc": 2827,
      "Ġaud": 2828,
      "orks": 2829,
      "Ã³n": 2830,
      "Ġthing": 2831,
      "ĠGr": 2832,
      "Ġformer": 2833,
      "Ġ195": 2834,
      "alt": 2835,
      "Ġcapt": 2836,
      "ÐµÐ´": 2837,
      "Ġrelig": 2838,
      "Ġconsidered": 2839,
      "Ġdoing": 2840,
      "gor": 2841,
      "Ġplant": 2842,
      "Ġproducts": 2843,
      "å®": 2844,
      "Ġdam": 2845,
      "ivil": 2846,
      "Ġbar": 2847,
      "Ġfeatures": 2848,
      "ĠMarch": 2849,
      "Do": 2850,
      "aling": 2851,
      "Ġface": 2852,
      "Ġstructure": 2853,
      "Ġversion": 2854,
      "ĠPe": 2855,
      "Ġprovided": 2856,
      "Ġregular": 2857,
      "inally": 2858,
      "IS": 2859,
      "Ġoccur": 2860,
      "Ġhours": 2861,
      "Ġtaken": 2862,
      "ply": 2863,
      "IC": 2864,
      "time": 2865,
      "Ġloss": 2866,
      "Ġskills": 2867,
      "earch": 2868,
      "andom": 2869,
      "Ġmultiple": 2870,
      "Ġsurface": 2871,
      "where": 2872,
      "oman": 2873,
      "Ġpattern": 2874,
      "ele": 2875,
      "orpor": 2876,
      "Ġmach": 2877,
      "Ġstandard": 2878,
      "Ġwebs": 2879,
      "enc": 2880,
      "ham": 2881,
      "Ġmeasure": 2882,
      "Ġtarg": 2883,
      "Ġimages": 2884,
      "Ġphrases": 2885,
      "eds": 2886,
      "Ġattack": 2887,
      "urns": 2888,
      "bb": 2889,
      "Ġwhole": 2890,
      "'ve": 2891,
      "Ġresources": 2892,
      "come": 2893,
      "Ġpractice": 2894,
      "uments": 2895,
      "Ġslow": 2896,
      "33": 2897,
      "Ġbuilt": 2898,
      "Ġrequired": 2899,
      "Ġbase": 2900,
      "Ġemer": 2901,
      "28": 2902,
      "Ġwide": 2903,
      "Ġliving": 2904,
      "Ġexplore": 2905,
      "26": 2906,
      "agine": 2907,
      "Ġconsist": 2908,
      "Ġgraph": 2909,
      "Ġimage": 2910,
      "Ġ>": 2911,
      "Ġquant": 2912,
      "Ġneeded": 2913,
      "Ġgirl": 2914,
      "Ġmethods": 2915,
      "Let": 2916,
      "Ġ...": 2917,
      "Ġpack": 2918,
      "hing": 2919,
      "ĠÑĥ": 2920,
      "key": 2921,
      "Ġdisease": 2922,
      "Ġwalk": 2923,
      "anks": 2924,
      "íķ": 2925,
      "Ġplayed": 2926,
      "Ġeasy": 2927,
      "Ġrev": 2928,
      "è¿": 2929,
      "ĠUse": 2930,
      "Ġaccording": 2931,
      "ptember": 2932,
      ")$": 2933,
      "Ġfunctions": 2934,
      "Ġbuy": 2935,
      "nov": 2936,
      "Ġcountries": 2937,
      "vert": 2938,
      "ara": 2939,
      "Ġemot": 2940,
      "Ġprovides": 2941,
      "Ġnight": 2942,
      "ĠAg": 2943,
      "istory": 2944,
      "Ġtreatment": 2945,
      "ĠProv": 2946,
      "Ġregion": 2947,
      "Ġê": 2948,
      "Ġimplement": 2949,
      "Ġprotect": 2950,
      "Ġeffic": 2951,
      "attle": 2952,
      "ha": 2953,
      "Ð¸Ð¼": 2954,
      "29": 2955,
      "ems": 2956,
      "uff": 2957,
      "Ġsym": 2958,
      "Ġcases": 2959,
      "ament": 2960,
      "Ġste": 2961,
      "uel": 2962,
      "astic": 2963,
      "li": 2964,
      "arily": 2965,
      "Ġcompon": 2966,
      "Ġsomet": 2967,
      "Ġfamil": 2968,
      "Ġbit": 2969,
      "oration": 2970,
      "ĠAmerica": 2971,
      "Ġwent": 2972,
      "Ġitself": 2973,
      "Ġ2010": 2974,
      "estern": 2975,
      "Ġuser": 2976,
      "Ġsource": 2977,
      "Ġbal": 2978,
      "Ġparam": 2979,
      "Ġtraining": 2980,
      "35": 2981,
      "Ġoffer": 2982,
      "Ġdou": 2983,
      "Ġoutside": 2984,
      "imately": 2985,
      "ĠWhile": 2986,
      "Ġcharacters": 2987,
      "Ġchem": 2988,
      "Ġparts": 2989,
      "Ġenjoy": 2990,
      "Ġpublished": 2991,
      "Ġcross": 2992,
      "ĠComp": 2993,
      "Ġled": 2994,
      "istics": 2995,
      "Ġsubst": 2996,
      "Ġaspect": 2997,
      "urg": 2998,
      "So": 2999,
      "based": 3000,
      "ĠGener": 3001,
      "ĠMc": 3002,
      "Ġcolor": 3003,
      "ĠNot": 3004,
      "Write": 3005,
      "Ġfocusing": 3006,
      "Ġbooks": 3007,
      "ĠJune": 3008,
      "Ġprec": 3009,
      "pite": 3010,
      "Con": 3011,
      "Ġheld": 3012,
      "Ġbehind": 3013,
      "Try": 3014,
      "Ġstraight": 3015,
      "Ġsix": 3016,
      "ĠSch": 3017,
      "ĠAugust": 3018,
      "ius": 3019,
      ":**": 3020,
      "Ġlate": 3021,
      "Ġclub": 3022,
      "Ġ2012": 3023,
      "Ġcou": 3024,
      "Ġmonths": 3025,
      "ĠSim": 3026,
      "Ð¾Ð¹": 3027,
      "ĠCons": 3028,
      "ynam": 3029,
      "cember": 3030,
      "Â·": 3031,
      "ĠÐ±": 3032,
      "Ġtakes": 3033,
      "istance": 3034,
      "oor": 3035,
      "rug": 3036,
      "ĠGl": 3037,
      "ĠSentence": 3038,
      "ĠLa": 3039,
      "Ġtable": 3040,
      "Ġindepend": 3041,
      "ĠFeb": 3042,
      "Ġnetwork": 3043,
      "Ġsn": 3044,
      "Ġstop": 3045,
      "Ġund": 3046,
      "Ġmax": 3047,
      "ÂłÂł": 3048,
      "34": 3049,
      "Ġconsum": 3050,
      "Ġglobal": 3051,
      "ached": 3052,
      "æĪ": 3053,
      "gorith": 3054,
      "reme": 3055,
      "Ġcells": 3056,
      "Ġengaging": 3057,
      "],": 3058,
      "Ġactivities": 3059,
      "Ġthemselves": 3060,
      "aly": 3061,
      "ĠMat": 3062,
      "Ġnecessary": 3063,
      "Ġ21": 3064,
      "ties": 3065,
      "hib": 3066,
      "Ġwebpage": 3067,
      "ault": 3068,
      "ixed": 3069,
      "Ġattempt": 3070,
      "Ġmiss": 3071,
      "Ġreading": 3072,
      "Ġexact": 3073,
      "Ġrecomm": 3074,
      "ĠArt": 3075,
      "itution": 3076,
      "=\"": 3077,
      "Ġmedia": 3078,
      "ĠDep": 3079,
      "Ġelse": 3080,
      "Ġreleased": 3081,
      "Ġeffects": 3082,
      "Ġsometimes": 3083,
      "ĠChar": 3084,
      "Ġmoving": 3085,
      "Ġdraw": 3086,
      "clusion": 3087,
      "Ġbroad": 3088,
      "ĠJanuary": 3089,
      "Ġestablished": 3090,
      "Ġmanagement": 3091,
      "ovember": 3092,
      "artment": 3093,
      "ĠMus": 3094,
      "ID": 3095,
      "lection": 3096,
      "ĠFrench": 3097,
      "Ġcoun": 3098,
      "Ġbring": 3099,
      "ãĢģ": 3100,
      "Ġforce": 3101,
      "Ġincluded": 3102,
      "Ġfront": 3103,
      "hens": 3104,
      "Now": 3105,
      "Ġaccept": 3106,
      "cret": 3107,
      "Ġrefer": 3108,
      "resp": 3109,
      "Ð¾Ð½": 3110,
      "Ġbeaut": 3111,
      "Ġalmost": 3112,
      "When": 3113,
      "minist": 3114,
      "Ġpage": 3115,
      "ED": 3116,
      "Ġden": 3117,
      "Ġallows": 3118,
      "ords": 3119,
      "hold": 3120,
      "ĠApril": 3121,
      "Ġsequ": 3122,
      "ades": 3123,
      "ĠWest": 3124,
      "lam": 3125,
      "ĠHigh": 3126,
      "Ġdeveloped": 3127,
      "off": 3128,
      "ĠAv": 3129,
      "Ġplaying": 3130,
      "Ġhor": 3131,
      "order": 3132,
      "Ġcomputer": 3133,
      "39": 3134,
      "Ġsun": 3135,
      "Ġensure": 3136,
      "iff": 3137,
      "Ġson": 3138,
      "åĬ": 3139,
      "Ġfem": 3140,
      "ĠÐ½Ð°": 3141,
      "Ġ2011": 3142,
      "Ġcompan": 3143,
      "ĠJuly": 3144,
      "AC": 3145,
      "rt": 3146,
      "Ñī": 3147,
      "erous": 3148,
      "isions": 3149,
      "Ġplayer": 3150,
      "itch": 3151,
      "Ġheav": 3152,
      "ĠPres": 3153,
      "ief": 3154,
      "ĠDav": 3155,
      "ctory": 3156,
      "itation": 3157,
      "Ġstri": 3158,
      "ĠII": 3159,
      "70": 3160,
      "ĠHer": 3161,
      "omen": 3162,
      "Ġlength": 3163,
      "Ġanc": 3164,
      "Ð³": 3165,
      "Ġgetting": 3166,
      "Ġincludes": 3167,
      "Ġinsp": 3168,
      "ĠBo": 3169,
      "ĠGo": 3170,
      "hood": 3171,
      "ĠMore": 3172,
      "Ġcompre": 3173,
      "Ġago": 3174,
      "ython": 3175,
      "Ġband": 3176,
      "head": 3177,
      "Ġeveryone": 3178,
      "Ġprint": 3179,
      "ica": 3180,
      "irit": 3181,
      "Ġsearch": 3182,
      "erve": 3183,
      "odes": 3184,
      "Ġdesigned": 3185,
      "oved": 3186,
      "Ġmag": 3187,
      "ĠTrans": 3188,
      "Ġnovel": 3189,
      "Ġpict": 3190,
      "umn": 3191,
      "ding": 3192,
      "ĠSw": 3193,
      "Ġhtt": 3194,
      "Ġfram": 3195,
      "rate": 3196,
      "uth": 3197,
      "Ġmechan": 3198,
      "Ġmoment": 3199,
      "Ġresponse": 3200,
      "icles": 3201,
      "bit": 3202,
      "ios": 3203,
      "ëĭ": 3204,
      "Ġintroductory": 3205,
      "Ġball": 3206,
      "ĠOctober": 3207,
      "Ġ23": 3208,
      "Ġdocument": 3209,
      "Ġinside": 3210,
      "Ġ40": 3211,
      "Ġhost": 3212,
      "ĠAc": 3213,
      "ĠSeptember": 3214,
      "Ġroom": 3215,
      "One": 3216,
      "hel": 3217,
      "Ġaverage": 3218,
      "âĪĴ": 3219,
      "life": 3220,
      "Ġcommit": 3221,
      "Ġetc": 3222,
      "Ġlocated": 3223,
      "Ġconduct": 3224,
      "Ġcondition": 3225,
      "Ġhypothesis": 3226,
      "ĠEm": 3227,
      "åĲ": 3228,
      "uous": 3229,
      "Ġweight": 3230,
      "Ġuses": 3231,
      "Ġtrying": 3232,
      "Ġanaly": 3233,
      "Ġfire": 3234,
      "Ġstreng": 3235,
      "Ġculture": 3236,
      "osing": 3237,
      "Ġmember": 3238,
      "olic": 3239,
      "Ġfactors": 3240,
      "ancial": 3241,
      "Ġtraditional": 3242,
      "bon": 3243,
      "dis": 3244,
      "Ġbasic": 3245,
      "Ġobt": 3246,
      "Ġtail": 3247,
      "Ġflu": 3248,
      "Ġ2009": 3249,
      "Ġstrateg": 3250,
      "Ġeverything": 3251,
      "Ġsex": 3252,
      "year": 3253,
      "Ġsil": 3254,
      "Ġrights": 3255,
      "oud": 3256,
      "ĠNow": 3257,
      "cell": 3258,
      "Ġsimply": 3259,
      "Ġsolve": 3260,
      "Ġlink": 3261,
      "rest": 3262,
      "alu": 3263,
      "ÑģÐº": 3264,
      "Ġfeature": 3265,
      "å¤": 3266,
      "Ġequation": 3267,
      "Ġdidn": 3268,
      "met": 3269,
      "Ġminutes": 3270,
      "load": 3271,
      "External": 3272,
      "Ġwond": 3273,
      "Ġreceived": 3274,
      "Question": 3275,
      "ĠDr": 3276,
      "Ġteac": 3277,
      "aur": 3278,
      "Ġ2008": 3279,
      "Un": 3280,
      "ĠMod": 3281,
      "Ġcollege": 3282,
      "Ġ2005": 3283,
      "ĠCounty": 3284,
      "But": 3285,
      "Ġord": 3286,
      "ĠHar": 3287,
      "ils": 3288,
      "Ġlives": 3289,
      "ĠWrite": 3290,
      "Ġ2013": 3291,
      "Ġsection": 3292,
      "ĠSm": 3293,
      "ĠJust": 3294,
      "(\\": 3295,
      "itute": 3296,
      "Ġleading": 3297,
      "Ġtown": 3298,
      "ĠUs": 3299,
      "Ġdemon": 3300,
      "Ġcontinue": 3301,
      "mediate": 3302,
      "ĠMon": 3303,
      "Ġaffect": 3304,
      "Ġmaterials": 3305,
      "Ġtechnical": 3306,
      "ĠDecember": 3307,
      "Ġextra": 3308,
      "à¨": 3309,
      "Ġ$$\\": 3310,
      "Ġevidence": 3311,
      "Ġreflect": 3312,
      "And": 3313,
      "Ġaltern": 3314,
      "Ġindustry": 3315,
      "Ġfit": 3316,
      "Ã¶": 3317,
      "Ġtarget": 3318,
      "iÃ³n": 3319,
      "ription": 3320,
      "rs": 3321,
      "ĠRo": 3322,
      "ager": 3323,
      "Ġstation": 3324,
      "wise": 3325,
      "Ġinstance": 3326,
      "Ġincreasing": 3327,
      "Ġ2007": 3328,
      "Ġcru": 3329,
      "rim": 3330,
      "Ġstay": 3331,
      "ĠEarth": 3332,
      "que": 3333,
      "Ġsold": 3334,
      "roup": 3335,
      "Ġcover": 3336,
      "36": 3337,
      "Ġmodels": 3338,
      "cast": 3339,
      "Ġmagn": 3340,
      "vey": 3341,
      "ÑģÑı": 3342,
      "45": 3343,
      "åľ": 3344,
      "ruary": 3345,
      "ĠReview": 3346,
      "Ġsem": 3347,
      "ĠGerman": 3348,
      "Ġhelps": 3349,
      "Ġshown": 3350,
      "Ġviol": 3351,
      "lin": 3352,
      "Ġability": 3353,
      "Ġtax": 3354,
      "Com": 3355,
      "Ġadded": 3356,
      "lim": 3357,
      "ama": 3358,
      "Ġfootball": 3359,
      "Ġcontain": 3360,
      "Ġ22": 3361,
      "Ġinternational": 3362,
      "Ġcateg": 3363,
      "ĠNovember": 3364,
      "bor": 3365,
      "Ġcommand": 3366,
      "aily": 3367,
      "Ġinvolved": 3368,
      "duc": 3369,
      "ĠÑĩ": 3370,
      "Ġstories": 3371,
      "ĠHealth": 3372,
      "lands": 3373,
      "Ġissue": 3374,
      "Ġroad": 3375,
      "elt": 3376,
      "Ġmedical": 3377,
      "Ġalgorith": 3378,
      "leep": 3379,
      "Ð°Ð²": 3380,
      "Ġchallenges": 3381,
      "ceed": 3382,
      "su": 3383,
      "Ġvia": 3384,
      "Ġtrack": 3385,
      "ev": 3386,
      "Ġreve": 3387,
      "itude": 3388,
      "Ġsymb": 3389,
      "Ġcat": 3390,
      "rast": 3391,
      "ĠFrom": 3392,
      "iles": 3393,
      "ĠAng": 3394,
      "Ġequal": 3395,
      "Ġaim": 3396,
      "Ġincreased": 3397,
      "Ġtechniques": 3398,
      "vant": 3399,
      "Ġvo": 3400,
      "Ġappe": 3401,
      "ĠThen": 3402,
      "ĠRuss": 3403,
      "Ð°Ð·": 3404,
      "aul": 3405,
      "Ġpressure": 3406,
      "LE": 3407,
      "Ġlines": 3408,
      "icip": 3409,
      "Ġclean": 3410,
      "Ġtools": 3411,
      "Ġcontact": 3412,
      "Ġencoura": 3413,
      "ĠInternational": 3414,
      "ibrary": 3415,
      "Ġconvers": 3416,
      "37": 3417,
      "Ġwebsite": 3418,
      "Ġdecl": 3419,
      "Ġemp": 3420,
      "Ġestim": 3421,
      "unch": 3422,
      "Ġlonger": 3423,
      "Ġconstant": 3424,
      "ĠPark": 3425,
      "Ġcareer": 3426,
      "Ġeconomic": 3427,
      "col": 3428,
      "Answer": 3429,
      "IT": 3430,
      "pri": 3431,
      "ondon": 3432,
      "porary": 3433,
      "equ": 3434,
      "pose": 3435,
      "rote": 3436,
      "ado": 3437,
      "Ġtemperature": 3438,
      "lege": 3439,
      "Ġcreating": 3440,
      "Ġrout": 3441,
      "Ġadditional": 3442,
      "++": 3443,
      "Ġtone": 3444,
      "rag": 3445,
      "just": 3446,
      "Ġbox": 3447,
      "urning": 3448,
      "itect": 3449,
      "Ġcritical": 3450,
      "Ġnormal": 3451,
      "Ġ2000": 3452,
      "38": 3453,
      "Ġeffective": 3454,
      "Ġcultural": 3455,
      "ĠFirst": 3456,
      "ĠSer": 3457,
      "eters": 3458,
      "Ġexec": 3459,
      "ĠAcc": 3460,
      "irm": 3461,
      "Ġelement": 3462,
      "Ġasked": 3463,
      "ĠÎ": 3464,
      "Ġperfect": 3465,
      "Ġinvestig": 3466,
      "Ġappl": 3467,
      "nown": 3468,
      "zz": 3469,
      "198": 3470,
      "Ġsociety": 3471,
      "atform": 3472,
      "yond": 3473,
      "cil": 3474,
      "overn": 3475,
      "iforn": 3476,
      "ought": 3477,
      "Ġeth": 3478,
      "}$$": 3479,
      "Ġbelieve": 3480,
      "amer": 3481,
      "mat": 3482,
      "Ġgreen": 3483,
      "Ġdecision": 3484,
      "Ġbehavior": 3485,
      "Ġestablish": 3486,
      "ington": 3487,
      "ellow": 3488,
      "ĠSec": 3489,
      "Ġstudent": 3490,
      "Ġinstall": 3491,
      "ĠVal": 3492,
      "eed": 3493,
      "ĠPre": 3494,
      "Ġvill": 3495,
      "Ġrelative": 3496,
      "Ġhot": 3497,
      "bra": 3498,
      "Ġactivity": 3499,
      "style": 3500,
      "Ġspeed": 3501,
      "pper": 3502,
      "respond": 3503,
      "32": 3504,
      "Ġsurround": 3505,
      "Ġapprox": 3506,
      "Ġforms": 3507,
      "Ġharm": 3508,
      "Ġquite": 3509,
      "Ġadapt": 3510,
      "Ġproduced": 3511,
      "fort": 3512,
      "ĠEuropean": 3513,
      "igen": 3514,
      "Ġexpect": 3515,
      "Ġdistribution": 3516,
      "Ġfish": 3517,
      "Ġvisit": 3518,
      "Ġcommunities": 3519,
      "levision": 3520,
      "ford": 3521,
      "Ġful": 3522,
      "ests": 3523,
      "more": 3524,
      "Ġattention": 3525,
      "ky": 3526,
      "Ġseems": 3527,
      "ĠMark": 3528,
      "Ð¾Ð±": 3529,
      "ĠChina": 3530,
      "rated": 3531,
      "Ġtrend": 3532,
      "angle": 3533,
      "Ġgreater": 3534,
      "Ġgas": 3535,
      "Ġexperiences": 3536,
      "Ġ2014": 3537,
      "Ġenh": 3538,
      "rong": 3539,
      "Ġ28": 3540,
      "Ġcomprehens": 3541,
      "lear": 3542,
      "Ġbrain": 3543,
      "mar": 3544,
      "inated": 3545,
      "airs": 3546,
      "Ġparticularly": 3547,
      "Ġpatients": 3548,
      "Ġdifference": 3549,
      "izations": 3550,
      "ifornia": 3551,
      "Ġplants": 3552,
      "ĠServ": 3553,
      "$.": 3554,
      "Ġpromot": 3555,
      "lier": 3556,
      "ĠUnder": 3557,
      "ĠIndia": 3558,
      "oles": 3559,
      "Ġagre": 3560,
      "Ã§": 3561,
      "Ġmicro": 3562,
      "Ġfavor": 3563,
      "asons": 3564,
      "Ġ26": 3565,
      "Ġadult": 3566,
      "Ġprograms": 3567,
      "Ġrandom": 3568,
      "Ġlost": 3569,
      "ĠMich": 3570,
      "Ġmilitary": 3571,
      "Ġsurv": 3572,
      "ĠScience": 3573,
      "Ġarri": 3574,
      "ĠGreat": 3575,
      "ounds": 3576,
      "ĠDis": 3577,
      "Ġwhose": 3578,
      "Ġofficial": 3579,
      "Ġsuff": 3580,
      "Ġsus": 3581,
      "sec": 3582,
      "Ġmonth": 3583,
      "Ġcompanies": 3584,
      "ĠRed": 3585,
      "90": 3586,
      "Ġ27": 3587,
      "used": 3588,
      "iter": 3589,
      "Ġdescribed": 3590,
      "Te": 3591,
      "anch": 3592,
      "Ġprofessional": 3593,
      "Ġcook": 3594,
      "room": 3595,
      "Ġones": 3596,
      "Cl": 3597,
      "Ġexerc": 3598,
      "ĠPhil": 3599,
      "Ġevalu": 3600,
      "aker": 3601,
      "Ġanimals": 3602,
      "Ġoffers": 3603,
      "omb": 3604,
      "ico": 3605,
      "Ġpremise": 3606,
      "Ġrunning": 3607,
      "Ġproperty": 3608,
      "####": 3609,
      "Ġ2015": 3610,
      "Ġdepth": 3611,
      "Ġfail": 3612,
      "Ġanything": 3613,
      "Ġ2017": 3614,
      "ĠSystem": 3615,
      "Ġheat": 3616,
      "Ġbad": 3617,
      "Ð»Ñı": 3618,
      "100": 3619,
      "Ġautom": 3620,
      "Ġoil": 3621,
      "Ġpsych": 3622,
      "ĠHol": 3623,
      "Ð»Ð¸": 3624,
      "NA": 3625,
      "no": 3626,
      "Ġmother": 3627,
      "ĠFebruary": 3628,
      "Ġaccessible": 3629,
      "ĠCanada": 3630,
      "Ġcontains": 3631,
      "inter": 3632,
      "ros": 3633,
      "áŀ": 3634,
      "Ġ2016": 3635,
      "Ġleaders": 3636,
      "Ġhon": 3637,
      "rought": 3638,
      "Ġwall": 3639,
      "Ġgoal": 3640,
      "standing": 3641,
      "Ġsafe": 3642,
      "izes": 3643,
      "Ð°Ð¼": 3644,
      "Ġoverall": 3645,
      "ux": 3646,
      "ampions": 3647,
      "Ġstru": 3648,
      "igned": 3649,
      "rig": 3650,
      "Ġexciting": 3651,
      "ĠIndian": 3652,
      "ufact": 3653,
      "ĠCollege": 3654,
      "da": 3655,
      "Ġremember": 3656,
      "ç»": 3657,
      "ÑģÑĤÐ²": 3658,
      "Ġexcept": 3659,
      "Ġeyes": 3660,
      "ĠLondon": 3661,
      "Ġpredict": 3662,
      "Ġidentify": 3663,
      "ĠAnt": 3664,
      "elebr": 3665,
      "ĠChe": 3666,
      "75": 3667,
      "acter": 3668,
      "Ġproduce": 3669,
      "Ġ||": 3670,
      "Ġupd": 3671,
      "Ġstress": 3672,
      "ĠWilliam": 3673,
      "Ġhistorical": 3674,
      "ederal": 3675,
      "æĺ": 3676,
      "Ġdat": 3677,
      "Ġhimself": 3678,
      "Ġyourself": 3679,
      "Ġsect": 3680,
      "ension": 3681,
      "ĠChristian": 3682,
      "Ġhope": 3683,
      "Ġdetails": 3684,
      "inct": 3685,
      "Ġsituation": 3686,
      "ĠHouse": 3687,
      "Ġborn": 3688,
      "ĊĠĠĠĠĠĠĠĠĠĠĠ": 3689,
      "Ġinitial": 3690,
      "Ġisn": 3691,
      "aid": 3692,
      "US": 3693,
      "enge": 3694,
      "uild": 3695,
      "oper": 3696,
      "Ġwrote": 3697,
      "ourney": 3698,
      "born": 3699,
      "Ġdemonstr": 3700,
      "Ġschools": 3701,
      "ĠCalifornia": 3702,
      "Ġcorrespond": 3703,
      "Ġprobably": 3704,
      "Ġconstruct": 3705,
      "uman": 3706,
      "Ġblock": 3707,
      "Ġir": 3708,
      "RE": 3709,
      "ĠCO": 3710,
      "Ġcard": 3711,
      "rial": 3712,
      "See": 3713,
      "Ġprice": 3714,
      "gar": 3715,
      "uge": 3716,
      "iful": 3717,
      "Ġdate": 3718,
      "Ġsaw": 3719,
      "Ġcred": 3720,
      "Ġdistance": 3721,
      "ny": 3722,
      "Ġhab": 3723,
      "Ġlands": 3724,
      "Ġsoon": 3725,
      "Ġoptions": 3726,
      "Ġ2004": 3727,
      "Ġwatch": 3728,
      "ĠEast": 3729,
      "ran": 3730,
      "Ġsoftware": 3731,
      "ĠInter": 3732,
      "Ġfather": 3733,
      "wers": 3734,
      "ĠGiven": 3735,
      "acc": 3736,
      "Ġblue": 3737,
      "Ġtransform": 3738,
      "Ġnews": 3739,
      "itar": 3740,
      "ĠRec": 3741,
      "ĠDon": 3742,
      "Ñĸ": 3743,
      "Ġbirth": 3744,
      "Ġpurch": 3745,
      "orge": 3746,
      "Ġreduce": 3747,
      "Ġtransport": 3748,
      "king": 3749,
      "Sh": 3750,
      "ald": 3751,
      "Ġinform": 3752,
      "oe": 3753,
      "Ġsteps": 3754,
      "istry": 3755,
      "irection": 3756,
      "Ġfinancial": 3757,
      "cos": 3758,
      "æĸ": 3759,
      "Ġmatch": 3760,
      "à¬": 3761,
      "unction": 3762,
      "ĠCor": 3763,
      "Ġdial": 3764,
      "egin": 3765,
      "Ġbeyond": 3766,
      "iar": 3767,
      "Ġsecurity": 3768,
      "Ġgives": 3769,
      "ensity": 3770,
      "Ġcancer": 3771,
      "Ġachieve": 3772,
      "Ġdark": 3773,
      "Ġgradu": 3774,
      "anish": 3775,
      "Ġcenter": 3776,
      "Ġlarger": 3777,
      "Ġfollowed": 3778,
      "Ġstatement": 3779,
      "Ġmovement": 3780,
      "Ġdigital": 3781,
      "osition": 3782,
      "è¯": 3783,
      "Ġapplication": 3784,
      "illing": 3785,
      "ĠJew": 3786,
      "ĠResearch": 3787,
      "ĠSol": 3788,
      "remise": 3789,
      "Ġdrug": 3790,
      "fficient": 3791,
      "inating": 3792,
      "Ġnorth": 3793,
      "rack": 3794,
      "haps": 3795,
      "Ġ60": 3796,
      "Ġassum": 3797,
      "Ġdefined": 3798,
      "ael": 3799,
      "Ġresearc": 3800,
      "Ġprep": 3801,
      "At": 3802,
      "Ġfeed": 3803,
      "AM": 3804,
      "OS": 3805,
      "orthern": 3806,
      "Ġmatrix": 3807,
      "},": 3808,
      "Ġparents": 3809,
      "ronic": 3810,
      "inate": 3811,
      "gram": 3812,
      "ĠÂł": 3813,
      "Americ": 3814,
      "Ð¶": 3815,
      "Ġdynam": 3816,
      "ris": 3817,
      "orial": 3818,
      "Ġthus": 3819,
      "à¯": 3820,
      "iers": 3821,
      "Ġsolutions": 3822,
      "Ġeasily": 3823,
      "Ġproperties": 3824,
      "Ġinnov": 3825,
      "Ġcontinued": 3826,
      "ternet": 3827,
      "Ġcool": 3828,
      "ĠCommun": 3829,
      "Ġapplications": 3830,
      "cles": 3831,
      "Ġquickly": 3832,
      "Ġrob": 3833,
      "iring": 3834,
      "ĠTechn": 3835,
      "Ġbecomes": 3836,
      "Ġexplanations": 3837,
      "Ġnut": 3838,
      "useum": 3839,
      "Ġparty": 3840,
      "Ġpick": 3841,
      "Ġpolicy": 3842,
      "âĢī": 3843,
      "Ġthinking": 3844,
      "ĠPat": 3845,
      "BC": 3846,
      "Ġmulti": 3847,
      "!!": 3848,
      "Ġ×": 3849,
      "Ġtou": 3850,
      "ĠBro": 3851,
      "ĠBlack": 3852,
      "Ġpractices": 3853,
      "Ġfast": 3854,
      "rick": 3855,
      "Ġsources": 3856,
      "name": 3857,
      "Ġten": 3858,
      "cks": 3859,
      "Ġinterpre": 3860,
      "cal": 3861,
      "Ġdisplay": 3862,
      "Ġoffice": 3863,
      "ĠEngland": 3864,
      "Ġcompared": 3865,
      "reek": 3866,
      "Ġjud": 3867,
      "ĠAssoci": 3868,
      "resh": 3869,
      "Ġstore": 3870,
      "Ġskin": 3871,
      "Ġthreat": 3872,
      "64": 3873,
      "ĠOur": 3874,
      "Ġlimit": 3875,
      "Ġ2018": 3876,
      "rie": 3877,
      "aint": 3878,
      "board": 3879,
      "Ġtold": 3880,
      "ocks": 3881,
      "za": 3882,
      "udd": 3883,
      "Ġlack": 3884,
      "rab": 3885,
      "ologies": 3886,
      "Ġalthough": 3887,
      "alle": 3888,
      "pi": 3889,
      "Ġsust": 3890,
      "ogue": 3891,
      "Ġmid": 3892,
      "Ġprogress": 3893,
      "Ġremain": 3894,
      "Ġremains": 3895,
      "Ġhands": 3896,
      "Ú©": 3897,
      "Ġactions": 3898,
      "Ġplatform": 3899,
      "Ġrock": 3900,
      "Ġworked": 3901,
      "eks": 3902,
      "Ġrat": 3903,
      "Ġmount": 3904,
      "ĠSan": 3905,
      "Ð¸Ð½": 3906,
      "tical": 3907,
      "oo": 3908,
      "Ġneigh": 3909,
      "\")": 3910,
      "Ġwood": 3911,
      "Ġassess": 3912,
      "ÙĬ": 3913,
      "55": 3914,
      "aught": 3915,
      "Ġinj": 3916,
      "unt": 3917,
      "Ġreported": 3918,
      "ĠOut": 3919,
      "ĠCenter": 3920,
      "Ġenvironmental": 3921,
      "Ġmathemat": 3922,
      ".\"?": 3923,
      "atur": 3924,
      "Ġvict": 3925,
      "Ġfight": 3926,
      "\":": 3927,
      "Ġappropri": 3928,
      "do": 3929,
      "la": 3930,
      "No": 3931,
      "ĠÙħ": 3932,
      "ä¸Ģ": 3933,
      "Ġ2003": 3934,
      "Ġsal": 3935,
      "Ġforces": 3936,
      "iber": 3937,
      "Ġshape": 3938,
      "Ġrules": 3939,
      "Ġvisual": 3940,
      "Im": 3941,
      "raw": 3942,
      "Ġcapital": 3943,
      "Ġimmediate": 3944,
      "Ġapprec": 3945,
      "Ġspirit": 3946,
      "Ð¸Ð¸": 3947,
      "ancing": 3948,
      "Ġprote": 3949,
      "ares": 3950,
      "Ġdetermine": 3951,
      "oking": 3952,
      "Ġlocation": 3953,
      "Ġplaces": 3954,
      "Ġforward": 3955,
      "AP": 3956,
      "Ġcivil": 3957,
      "bf": 3958,
      "=\\": 3959,
      "Ġchoose": 3960,
      "ams": 3961,
      "By": 3962,
      "amples": 3963,
      "Ġprivate": 3964,
      "Ġexpression": 3965,
      "ĠDef": 3966,
      "ĠGeneral": 3967,
      "Ġobjects": 3968,
      "ĠLeague": 3969,
      "ÑĤÐ¾": 3970,
      "Ġmis": 3971,
      "Ø³": 3972,
      "ÐµÐº": 3973,
      "Ġchapter": 3974,
      "rans": 3975,
      "Ġstage": 3976,
      "Ġnames": 3977,
      "Â·Â·": 3978,
      "Ġwanted": 3979,
      "á»": 3980,
      "$,": 3981,
      "Ġdecided": 3982,
      "pped": 3983,
      "Ġsouth": 3984,
      "roduction": 3985,
      "eta": 3986,
      "Ġgoes": 3987,
      "Ġexpected": 3988,
      "Ġcommunication": 3989,
      "Ġvariety": 3990,
      "48": 3991,
      "ocal": 3992,
      "cd": 3993,
      "Ġconcer": 3994,
      "ĠPresident": 3995,
      "Ġsafety": 3996,
      "31": 3997,
      "ij": 3998,
      "hips": 3999,
      "oming": 4000,
      "Ġincorpor": 4001,
      "ĠLaw": 4002,
      "Ġproviding": 4003,
      "Ġlif": 4004,
      "01": 4005,
      "istor": 4006,
      "Ġprimary": 4007,
      "Ġclimate": 4008,
      "Ġcentral": 4009,
      "Ġbenefits": 4010,
      "78": 4011,
      "Ġscreen": 4012,
      "reet": 4013,
      "Ġgenerally": 4014,
      "Ġcelebr": 4015,
      "Ġserved": 4016,
      "ida": 4017,
      "Ġult": 4018,
      "Ġmoved": 4019,
      "Ġadminist": 4020,
      "itable": 4021,
      "65": 4022,
      "Ġspect": 4023,
      "Ġnav": 4024,
      "ĠØ¨": 4025,
      "vere": 4026,
      "men": 4027,
      "change": 4028,
      "Sc": 4029,
      "Ġdeal": 4030,
      "Ġcomprehensive": 4031,
      "Ġactive": 4032,
      "ying": 4033,
      "Ġrequires": 4034,
      "mission": 4035,
      "ulated": 4036,
      "bre": 4037,
      "pha": 4038,
      "Ġspread": 4039,
      "Ð¾Ð³Ð¾": 4040,
      "Ġjourney": 4041,
      "ĠOther": 4042,
      "Ġtree": 4043,
      "Ġsett": 4044,
      "Ġconstruction": 4045,
      "Ġfigure": 4046,
      "Ġfarm": 4047,
      "Ġlegal": 4048,
      "arrow": 4049,
      "Ġhit": 4050,
      "raction": 4051,
      "Ġscen": 4052,
      "Ġunc": 4053,
      "nection": 4054,
      "Ð¸Ð²": 4055,
      "________": 4056,
      "ĠAir": 4057,
      "Ġconclude": 4058,
      "Ð¾Ð¶": 4059,
      "Ġwarm": 4060,
      "Ġveh": 4061,
      "ìĿ´": 4062,
      "oul": 4063,
      "inese": 4064,
      "Ġhyd": 4065,
      "Ġdecre": 4066,
      "Ġerror": 4067,
      "field": 4068,
      "Ġinfluence": 4069,
      "ĠRiver": 4070,
      "Ġmanufact": 4071,
      "forward": 4072,
      "emporary": 4073,
      "Ġsuccessful": 4074,
      "ĠMor": 4075,
      "Ġpowerful": 4076,
      "alse": 4077,
      "With": 4078,
      "Ġlimited": 4079,
      "oday": 4080,
      "Ġclos": 4081,
      "ingu": 4082,
      "05": 4083,
      "Ġchemical": 4084,
      "ĠOver": 4085,
      "Ġtypically": 4086,
      "see": 4087,
      "Ġox": 4088,
      "Ġdied": 4089,
      "ervation": 4090,
      "ĠCour": 4091,
      "usion": 4092,
      "ĠNet": 4093,
      "Ġcontract": 4094,
      ")(": 4095,
      "ĠAut": 4096,
      "Ġsympt": 4097,
      "ĠChurch": 4098,
      "urt": 4099,
      "ĠStart": 4100,
      "Ġcapac": 4101,
      "ecause": 4102,
      "Ġshared": 4103,
      "Ġmachine": 4104,
      "Ġexactly": 4105,
      "HE": 4106,
      "Ġdaily": 4107,
      "umber": 4108,
      "Ġequations": 4109,
      "oke": 4110,
      "Ġcit": 4111,
      "Ġpen": 4112,
      "Ġshap": 4113,
      "44": 4114,
      "vention": 4115,
      "Ġlargest": 4116,
      "Ġplot": 4117,
      "Ġcand": 4118,
      "Ġ29": 4119,
      "outhern": 4120,
      "Ġconflic": 4121,
      "Ġ2001": 4122,
      "Ġnothing": 4123,
      "American": 4124,
      "ĠDist": 4125,
      "ĠDavid": 4126,
      "ĠDay": 4127,
      "Ġimportance": 4128,
      "ĠSince": 4129,
      "Ġcollabor": 4130,
      "Ġkids": 4131,
      "nes": 4132,
      "Ġbur": 4133,
      "Ġpan": 4134,
      "Ġusers": 4135,
      "ĠAre": 4136,
      "ĊĠĠ": 4137,
      "Ġqual": 4138,
      "overy": 4139,
      "rapy": 4140,
      "ĠOf": 4141,
      "Ġsleep": 4142,
      "Ġpark": 4143,
      "Ġbackground": 4144,
      "Ġextreme": 4145,
      "Ġbeginning": 4146,
      "Ġrelevant": 4147,
      "Ġwrong": 4148,
      "Ġconcent": 4149,
      "Ġcaused": 4150,
      "ĠPress": 4151,
      "ĠJapanese": 4152,
      "Ð¸Ðº": 4153,
      "Ġphil": 4154,
      "Ġprocesses": 4155,
      "Ġnote": 4156,
      "Ġaware": 4157,
      "ĠDuring": 4158,
      "Ġefforts": 4159,
      "Ġinteresting": 4160,
      "Ġstarting": 4161,
      "Ð¾Ñģ": 4162,
      "ĠInclude": 4163,
      "Ġzero": 4164,
      "Ġreach": 4165,
      "ned": 4166,
      "Ġmedic": 4167,
      "ĠMany": 4168,
      "ret": 4169,
      "ĠRem": 4170,
      "ocr": 4171,
      "Ġexploration": 4172,
      "Ð°ÑĢ": 4173,
      "ĠPort": 4174,
      "Ġearlier": 4175,
      "æĹ": 4176,
      "Ġround": 4177,
      "ken": 4178,
      "Ġfair": 4179,
      "known": 4180,
      "Ġancient": 4181,
      "Ġadop": 4182,
      "].": 4183,
      "Ġded": 4184,
      "Ġcurrently": 4185,
      "ĠEach": 4186,
      "Ġmemory": 4187,
      "Ġmer": 4188,
      "ĠAustralia": 4189,
      "Ġextensive": 4190,
      "Ġdirection": 4191,
      "Ġgrowing": 4192,
      "Ġconver": 4193,
      "Ġdefinition": 4194,
      "Ġfeet": 4195,
      "Ġsatis": 4196,
      "After": 4197,
      "ĠGovern": 4198,
      "Ġrelease": 4199,
      "Ġdu": 4200,
      "ĠEns": 4201,
      "Ġtailored": 4202,
      "Ġoperations": 4203,
      "otes": 4204,
      "ĠÐ°": 4205,
      "à§": 4206,
      "cape": 4207,
      "Ġbrought": 4208,
      "ĠKe": 4209,
      "Ġtelevision": 4210,
      "Ġsch": 4211,
      "ste": 4212,
      "place": 4213,
      "Ġperspect": 4214,
      "Ġdegree": 4215,
      "ĠCoun": 4216,
      "Ġweeks": 4217,
      "ously": 4218,
      "isms": 4219,
      "Ġelectric": 4220,
      "Ġcollection": 4221,
      "Ġstar": 4222,
      "ĠWell": 4223,
      "Ġopportunities": 4224,
      "ato": 4225,
      "è®": 4226,
      "Ġlinear": 4227,
      "ashington": 4228,
      "oyal": 4229,
      "Ġresearchers": 4230,
      "UES": 4231,
      "ulate": 4232,
      "fl": 4233,
      "Ġcarry": 4234,
      "Ġplease": 4235,
      "aughter": 4236,
      "à¤¾": 4237,
      "ricult": 4238,
      "ĠThrough": 4239,
      "phas": 4240,
      "add": 4241,
      "ibly": 4242,
      "Ġrule": 4243,
      "çĶ¨": 4244,
      "Ġgave": 4245,
      "Ġwild": 4246,
      "ees": 4247,
      "osis": 4248,
      "irus": 4249,
      "Ġpiece": 4250,
      "Ġhighly": 4251,
      "ario": 4252,
      "Pl": 4253,
      "Ġcast": 4254,
      "Ph": 4255,
      "ĠClass": 4256,
      "Ġarchitect": 4257,
      "ĠRoman": 4258,
      "Ġdepend": 4259,
      "Ġvalu": 4260,
      "ias": 4261,
      "Ġtru": 4262,
      "ki": 4263,
      "ĠEduc": 4264,
      "Ġsquare": 4265,
      "opp": 4266,
      "display": 4267,
      "Ġtool": 4268,
      "ĠBook": 4269,
      "Ġ2020": 4270,
      "ĠFl": 4271,
      "EC": 4272,
      "Ġleave": 4273,
      "idents": 4274,
      "ÅŁ": 4275,
      "ĠBer": 4276,
      "Ġacqu": 4277,
      "à²": 4278,
      "Ġ2019": 4279,
      "Ġbeautiful": 4280,
      "Ġexplain": 4281,
      "Ġutil": 4282,
      "Ġgold": 4283,
      "Ġtransfer": 4284,
      "àº": 4285,
      "aign": 4286,
      "raz": 4287,
      "ĠRepublic": 4288,
      "Ġcomment": 4289,
      "yd": 4290,
      "Ġmole": 4291,
      "Ġchoice": 4292,
      "Ġanti": 4293,
      "ech": 4294,
      "ession": 4295,
      "ĠDepartment": 4296,
      "Ġearth": 4297,
      "pid": 4298,
      "Ġitems": 4299,
      "ounced": 4300,
      "Ġstrugg": 4301,
      "iples": 4302,
      "mod": 4303,
      "Ġfat": 4304,
      "ellig": 4305,
      "Ġpret": 4306,
      "Ġrelationships": 4307,
      "Ġmental": 4308,
      "sq": 4309,
      "ifically": 4310,
      "ĠBel": 4311,
      "cean": 4312,
      "Ġguid": 4313,
      "ÐµÐ½Ð¸Ñı": 4314,
      "ville": 4315,
      "ĠJames": 4316,
      "iency": 4317,
      "Ġtour": 4318,
      "Ġhealthy": 4319,
      "Ġmale": 4320,
      "Ġformat": 4321,
      "Ġhom": 4322,
      "Be": 4323,
      "Ġaspects": 4324,
      "RO": 4325,
      "Ġsentences": 4326,
      "adian": 4327,
      "Ġstrategies": 4328,
      "Ġstructures": 4329,
      "Ġformed": 4330,
      "Ġload": 4331,
      "ĠÑį": 4332,
      "ĠAlex": 4333,
      "]:": 4334,
      "Ġapply": 4335,
      "Ġdiverse": 4336,
      "Ġcrucial": 4337,
      "Ġstraightforward": 4338,
      "och": 4339,
      "Ġnuc": 4340,
      "ogle": 4341,
      "Ð°ÑĤÑĮ": 4342,
      "point": 4343,
      "¿½": 4344,
      "ancy": 4345,
      "wood": 4346,
      "ya": 4347,
      "ĠAlthough": 4348,
      "hest": 4349,
      "Ġuseful": 4350,
      "ä¼": 4351,
      "Ġdemand": 4352,
      "Ġbird": 4353,
      "Ġallowed": 4354,
      "Ġcoming": 4355,
      "ett": 4356,
      "works": 4357,
      "Ġcoord": 4358,
      "Ġexpand": 4359,
      "Ġserious": 4360,
      "Ġboard": 4361,
      "Ġcomponents": 4362,
      "ĠPerson": 4363,
      "ÐµÐ¹": 4364,
      "Ġrow": 4365,
      "urrent": 4366,
      "Ġfemale": 4367,
      "Ġswe": 4368,
      "lymp": 4369,
      "ĠMost": 4370,
      "Ġpatterns": 4371,
      "Ġprojects": 4372,
      "Ġpurpose": 4373,
      "Ġfa": 4374,
      "Ġsetting": 4375,
      "def": 4376,
      "ĠAfrican": 4377,
      "Ġtheore": 4378,
      "ï¿½": 4379,
      "Ġ2002": 4380,
      "Ġast": 4381,
      "Ġfamilies": 4382,
      "ĠSte": 4383,
      "Ġrace": 4384,
      "Ġeat": 4385,
      "Ġforest": 4386,
      "47": 4387,
      "ags": 4388,
      "Ġcoverage": 4389,
      "Here": 4390,
      "ìĹ": 4391,
      "aby": 4392,
      "Ġreligious": 4393,
      "ĠÐ¾Ð±": 4394,
      "ĠOrder": 4395,
      "Ġcourt": 4396,
      "åľ¨": 4397,
      "Ġassist": 4398,
      "ava": 4399,
      "Ġsmaller": 4400,
      "with": 4401,
      "ĠTur": 4402,
      "(\"": 4403,
      "Ġpow": 4404,
      "dep": 4405,
      "unk": 4406,
      "rey": 4407,
      "ĠFin": 4408,
      "ii": 4409,
      "ipment": 4410,
      "49": 4411,
      "Ġscientific": 4412,
      "iny": 4413,
      "ÑĦ": 4414,
      "Ð¸Ð¹": 4415,
      "æķ": 4416,
      "Ġfactor": 4417,
      "ube": 4418,
      "wide": 4419,
      "ĠDet": 4420,
      "Ġworth": 4421,
      "cious": 4422,
      "ÑĢÑĥ": 4423,
      "UESTION": 4424,
      "66": 4425,
      "pen": 4426,
      "====": 4427,
      "Ġbread": 4428,
      "ĠYes": 4429,
      "osoph": 4430,
      "Ġsea": 4431,
      "Ġserve": 4432,
      "ĠTest": 4433,
      "ĠGermany": 4434,
      "Ġhar": 4435,
      "Ġmovie": 4436,
      "Ġsets": 4437,
      "Ġresponsible": 4438,
      "Ġpoor": 4439,
      "Ġrich": 4440,
      "odies": 4441,
      "Ġtrust": 4442,
      "Ġhumans": 4443,
      "iable": 4444,
      "uries": 4445,
      "ĠEnsure": 4446,
      "åĽ": 4447,
      "rief": 4448,
      "ĠSpec": 4449,
      "Ġtherefore": 4450,
      "Ġproced": 4451,
      "Ar": 4452,
      "ĠJournal": 4453,
      "Ġrecommend": 4454,
      "Ġspeak": 4455,
      "mathrm": 4456,
      "Ð¹": 4457,
      "$\\": 4458,
      "ĠPal": 4459,
      "gebra": 4460,
      "ĠChinese": 4461,
      "Ġindependent": 4462,
      "Ġbott": 4463,
      "cont": 4464,
      "Ġvariables": 4465,
      "rian": 4466,
      "aled": 4467,
      "ĠRel": 4468,
      "?\"": 4469,
      "Ġtrade": 4470,
      "AD": 4471,
      "Ġbelief": 4472,
      "Ġcommer": 4473,
      "Ġregarding": 4474,
      "Ġfilms": 4475,
      "åĴ": 4476,
      "Ġ@": 4477,
      "Ġvariable": 4478,
      "Ġtrends": 4479,
      "Ã¤": 4480,
      "iant": 4481,
      "Ġmaintain": 4482,
      "ĠArch": 4483,
      "ĠHistory": 4484,
      "print": 4485,
      "ago": 4486,
      "ĠDiv": 4487,
      "Ġsymptoms": 4488,
      "Ð¸Ñĩ": 4489,
      "Ġmessage": 4490,
      "Ġdimens": 4491,
      "Ġpresident": 4492,
      "Ġaccom": 4493,
      "ĠWashington": 4494,
      "Ġillust": 4495,
      "OL": 4496,
      "Ġhous": 4497,
      "Ġdivid": 4498,
      "Ġepis": 4499,
      "omas": 4500,
      "Ġoption": 4501,
      "century": 4502,
      "ĠInstitute": 4503,
      "Ġdamage": 4504,
      "ĠPaul": 4505,
      "term": 4506,
      "Ġcosts": 4507,
      "ospital": 4508,
      "ĠDem": 4509,
      "Ġfru": 4510,
      "Ġbond": 4511,
      "ĠAfrica": 4512,
      "ĠFrance": 4513,
      "www": 4514,
      "edia": 4515,
      "Ð¾ÑģÑĤ": 4516,
      "ĠConst": 4517,
      "ĠVol": 4518,
      "semb": 4519,
      "ĠJe": 4520,
      "ano": 4521,
      "ander": 4522,
      "Ġbank": 4523,
      "Ġcompletely": 4524,
      "Ġidentity": 4525,
      "Ġinstr": 4526,
      "Ġcry": 4527,
      "abilities": 4528,
      "Ġboy": 4529,
      "ĠSub": 4530,
      "Ġdeveloping": 4531,
      "ĠDevelop": 4532,
      "Ġvector": 4533,
      "ĠConnect": 4534,
      "UT": 4535,
      "Ġuna": 4536,
      "Ġappropriate": 4537,
      "Ġemail": 4538,
      "Ġrespond": 4539,
      "Ġdevice": 4540,
      "Ġcarbon": 4541,
      "Ġallowing": 4542,
      "Ġslight": 4543,
      "Ġchanged": 4544,
      "Ġthous": 4545,
      "Ġinvolves": 4546,
      "Ġ1999": 4547,
      "leg": 4548,
      "My": 4549,
      "rices": 4550,
      "Ġexperien": 4551,
      "àµ": 4552,
      "ĠProvide": 4553,
      "ĠRich": 4554,
      "Ġanyone": 4555,
      "ĠUnion": 4556,
      "Ġunits": 4557,
      "displaystyle": 4558,
      "utive": 4559,
      "ST": 4560,
      "Ġfasc": 4561,
      "Ġvaluable": 4562,
      "Ġlat": 4563,
      "Ġgets": 4564,
      "Ġsites": 4565,
      "olar": 4566,
      "ĠRober": 4567,
      "Ġice": 4568,
      "ĠGra": 4569,
      "ĠÑģÑĤ": 4570,
      "ifying": 4571,
      "Ġbasis": 4572,
      "itz": 4573,
      "Ġpara": 4574,
      "Ġalgorithm": 4575,
      "Ġgiving": 4576,
      "annel": 4577,
      "ĠPost": 4578,
      "ician": 4579,
      "Ġgoals": 4580,
      "Ð¾Ð»ÑĮ": 4581,
      "åĴĮ": 4582,
      "range": 4583,
      "Ø¨": 4584,
      "Ġgenerate": 4585,
      "ET": 4586,
      "è¡": 4587,
      "xi": 4588,
      "Ġacadem": 4589,
      "Ġconnection": 4590,
      "Ġconsequ": 4591,
      "Ġcontroll": 4592,
      "Ġanswers": 4593,
      "ira": 4594,
      "Ġsample": 4595,
      "ipl": 4596,
      "Ġshall": 4597,
      "Ġsummer": 4598,
      "Ġsurpr": 4599,
      "ĠAssociation": 4600,
      "ĠUK": 4601,
      "ĠTV": 4602,
      "ĠSam": 4603,
      "encies": 4604,
      "Ġdead": 4605,
      "Ġadvent": 4606,
      "Ġfully": 4607,
      "ĠAlso": 4608,
      "Ġbul": 4609,
      "Ġheard": 4610,
      "ĠGeorge": 4611,
      "ructions": 4612,
      "Ġanimal": 4613,
      "Ġconv": 4614,
      "Ġstaff": 4615,
      "ĠAvoid": 4616,
      "Ġfollows": 4617,
      "begin": 4618,
      "59": 4619,
      "Ġlooks": 4620,
      "Ġliterature": 4621,
      "Ġeye": 4622,
      "ooth": 4623,
      "otic": 4624,
      "Ġchallenge": 4625,
      "ĠMex": 4626,
      "Ġrecently": 4627,
      "Ġbalance": 4628,
      "Ġvoice": 4629,
      "ĠRet": 4630,
      "Ġorganization": 4631,
      "Ġlearned": 4632,
      "åį": 4633,
      "uit": 4634,
      "Ġadvant": 4635,
      "Ġelectr": 4636,
      "Ġdro": 4637,
      "ĠPhys": 4638,
      "Ġbrother": 4639,
      "berg": 4640,
      "antic": 4641,
      "down": 4642,
      "77": 4643,
      "Ġemphas": 4644,
      "Ġing": 4645,
      "ĠTheir": 4646,
      "ĠĠĠĠĠ": 4647,
      "Step": 4648,
      "Ġpolic": 4649,
      "Ġreturned": 4650,
      "igure": 4651,
      "Ġdiscover": 4652,
      "Ġmap": 4653,
      "Ġreceive": 4654,
      "rael": 4655,
      "Ġfost": 4656,
      "ĠRev": 4657,
      "ception": 4658,
      "olf": 4659,
      "OT": 4660,
      "sqrt": 4661,
      "Ġapplied": 4662,
      "Ġrates": 4663,
      "Ġsustain": 4664,
      "Ġattract": 4665,
      "Ġbreat": 4666,
      "Ġoptim": 4667,
      "Ġmentioned": 4668,
      "ĠÐ³": 4669,
      "ëĭ¤": 4670,
      "vest": 4671,
      "46": 4672,
      "Ġdouble": 4673,
      "uration": 4674,
      "olute": 4675,
      "Pe": 4676,
      "icate": 4677,
      "Ġaccur": 4678,
      "Ġready": 4679,
      "ĠCong": 4680,
      "Ġnation": 4681,
      "ears": 4682,
      "Ġintroduced": 4683,
      "Ġrot": 4684,
      "Ġprobability": 4685,
      "isl": 4686,
      "Ġdevices": 4687,
      "amin": 4688,
      "ĠMal": 4689,
      "ĠDel": 4690,
      "Ġrepe": 4691,
      "care": 4692,
      "Ġscale": 4693,
      "}^{": 4694,
      "Ġnumerous": 4695,
      "ĠProf": 4696,
      "Ġgain": 4697,
      "ĠOff": 4698,
      "Ġfelt": 4699,
      "Ġdie": 4700,
      "iday": 4701,
      "mark": 4702,
      "oted": 4703,
      "ĠGreen": 4704,
      "Ġmob": 4705,
      "Ġstatus": 4706,
      "Ġaw": 4707,
      "Ġtrain": 4708,
      "08": 4709,
      "onic": 4710,
      "Ġeight": 4711,
      "opy": 4712,
      "Ġchurch": 4713,
      "Ġreference": 4714,
      "New": 4715,
      "Ġgard": 4716,
      "Ã¨": 4717,
      "Ġdistinct": 4718,
      "Example": 4719,
      "Ġpicture": 4720,
      "urance": 4721,
      "Se": 4722,
      "Ġvirt": 4723,
      "force": 4724,
      "Ġefficient": 4725,
      "ĠBay": 4726,
      "Ġsignificantly": 4727,
      "Ġlabel": 4728,
      "Ġactual": 4729,
      "Ġcharg": 4730,
      "Ġentailed": 4731,
      "undred": 4732,
      "ĠStep": 4733,
      "ĠJack": 4734,
      ")\\": 4735,
      "Hypothesis": 4736,
      "Ð°Ñı": 4737,
      "acing": 4738,
      "ĠPri": 4739,
      "ĠRead": 4740,
      "Ġfiles": 4741,
      "Ġexploring": 4742,
      "ka": 4743,
      "UR": 4744,
      "Ġvalid": 4745,
      "Ð¾Ðº": 4746,
      "Ġconcern": 4747,
      "atin": 4748,
      "roy": 4749,
      "elcome": 4750,
      "Ġopportunity": 4751,
      "eper": 4752,
      "Ġseg": 4753,
      "Ġdiet": 4754,
      "Ġtrees": 4755,
      "Ġturned": 4756,
      "ĠUp": 4757,
      "Ġmut": 4758,
      "Ġplays": 4759,
      "Ġradio": 4760,
      "inger": 4761,
      "Ġking": 4762,
      "Ġbelong": 4763,
      "Ġunf": 4764,
      "Ġcomfort": 4765,
      "Ġ65": 4766,
      "ĠJes": 4767,
      "Ġfresh": 4768,
      "Ġperformed": 4769,
      "log": 4770,
      "Ġpresented": 4771,
      "Ġhair": 4772,
      "Ġvolume": 4773,
      "Ġpair": 4774,
      "Ġdang": 4775,
      "ĠIts": 4776,
      "Ġfields": 4777,
      "PS": 4778,
      "argon": 4779,
      "Ġtit": 4780,
      "ĠMr": 4781,
      "Ġeventually": 4782,
      "rows": 4783,
      "Â°": 4784,
      "Ġdiagn": 4785,
      "Ġfinding": 4786,
      "mitted": 4787,
      "iance": 4788,
      "comp": 4789,
      "ĠWestern": 4790,
      "Ġcos": 4791,
      "Ġenter": 4792,
      "ĠMart": 4793,
      "mathbf": 4794,
      "Ġimag": 4795,
      "ĠSen": 4796,
      "Ġplaced": 4797,
      "ĠQue": 4798,
      "ä¹": 4799,
      "68": 4800,
      "Ġcompar": 4801,
      "Ġtim": 4802,
      "Ad": 4803,
      "ctors": 4804,
      "onom": 4805,
      "Ġoccup": 4806,
      "idth": 4807,
      "Ġnavig": 4808,
      "Ġcampaign": 4809,
      "58": 4810,
      "ĠSociety": 4811,
      "åŃ": 4812,
      "ĠBen": 4813,
      "Ġdiscovered": 4814,
      "Ġacid": 4815,
      "Ġcitiz": 4816,
      "Ġexisting": 4817,
      "Ġwat": 4818,
      "Int": 4819,
      "ria": 4820,
      "Ġleaves": 4821,
      "Ð¾Ð·": 4822,
      "iated": 4823,
      "Ġtend": 4824,
      "Ġspl": 4825,
      "Ġwonder": 4826,
      "79": 4827,
      "Ġpatient": 4828,
      "Ġlabor": 4829,
      "ĠOb": 4830,
      "ĠEven": 4831,
      "Ġjargon": 4832,
      "bert": 4833,
      "ĠAccording": 4834,
      "Ġhol": 4835,
      "Ġappears": 4836,
      "Ġcharge": 4837,
      "ĠSupp": 4838,
      "Ġdifferences": 4839,
      "depth": 4840,
      "Ð½Ð¾ÑģÑĤ": 4841,
      "Ġorganizations": 4842,
      "ga": 4843,
      "Ġapproachable": 4844,
      "ĠEv": 4845,
      "All": 4846,
      "Ġ1998": 4847,
      "band": 4848,
      "stract": 4849,
      "ini": 4850,
      "Ð¸Ñħ": 4851,
      "Ġmiles": 4852,
      "agon": 4853,
      "Ġformula": 4854,
      "æĺ¯": 4855,
      "edom": 4856,
      "ĠCouncil": 4857,
      "Ġvillage": 4858,
      "ĠPeople": 4859,
      "Ġeffort": 4860,
      "sum": 4861,
      "Ġalternative": 4862,
      "Ġalone": 4863,
      "Ġbed": 4864,
      "Ġ?": 4865,
      "ĠTitle": 4866,
      "cap": 4867,
      "Ġmaximum": 4868,
      "Ġrapid": 4869,
      "å°": 4870,
      "Ġnearly": 4871,
      "Ġpassed": 4872,
      "Ġcauses": 4873,
      "crete": 4874,
      "class": 4875,
      "Ġlaws": 4876,
      "Ġheight": 4877,
      "ĠAnswer": 4878,
      "rd": 4879,
      "ĠGroup": 4880,
      "iling": 4881,
      "abet": 4882,
      "Ġpresence": 4883,
      "Ġmill": 4884,
      "hab": 4885,
      "ĠDirect": 4886,
      "Ġsequence": 4887,
      "anging": 4888,
      "uing": 4889,
      "Ġolder": 4890,
      "ĠStreet": 4891,
      "ĠHam": 4892,
      "Ġdecisions": 4893,
      "Ġcolon": 4894,
      "icated": 4895,
      "alian": 4896,
      "09": 4897,
      "Ġdrink": 4898,
      "Ð¸Ð·": 4899,
      "Ġsoci": 4900,
      "Ġcore": 4901,
      "Ġsports": 4902,
      "Ġteaching": 4903,
      "Us": 4904,
      "ĠJer": 4905,
      "ĠMil": 4906,
      "pected": 4907,
      "Ġspent": 4908,
      "Ġkn": 4909,
      "Ġlas": 4910,
      "</": 4911,
      "Ġstrength": 4912,
      "Ġseparate": 4913,
      "CO": 4914,
      "Ġadjust": 4915,
      "Ġple": 4916,
      "ĠHall": 4917,
      "ëĬ": 4918,
      "Ġcounter": 4919,
      "Ġopened": 4920,
      "QUESTION": 4921,
      "Ġroll": 4922,
      "blem": 4923,
      "Ã£": 4924,
      "Ġbra": 4925,
      "Ġpeace": 4926,
      "rees": 4927,
      "nam": 4928,
      "step": 4929,
      "pan": 4930,
      "Ġequipment": 4931,
      "Ġcontemporary": 4932,
      "ĠMary": 4933,
      "éĢ": 4934,
      "ĠDec": 4935,
      "::": 4936,
      "Ġscript": 4937,
      "Ġtouch": 4938,
      "69": 4939,
      "ĠÐ¾ÑĤ": 4940,
      "ĠMac": 4941,
      "gin": 4942,
      "Ġdram": 4943,
      "ING": 4944,
      "ĠEducation": 4945,
      "IV": 4946,
      "which": 4947,
      "osen": 4948,
      "Ġscientists": 4949,
      "Ġequival": 4950,
      "Ġconnected": 4951,
      "Ġsave": 4952,
      "Ġsaying": 4953,
      "Ġstring": 4954,
      "Ġseven": 4955,
      "aus": 4956,
      "Ġglass": 4957,
      "ĠTwo": 4958,
      "ĠAddition": 4959,
      "MS": 4960,
      "ĠLear": 4961,
      "Ġmeasures": 4962,
      "mas": 4963,
      "ĠMichael": 4964,
      "arter": 4965,
      "ĠOlymp": 4966,
      "Ġexperim": 4967,
      "'d": 4968,
      "ĠSun": 4969,
      "ĠCup": 4970,
      "hors": 4971,
      "tee": 4972,
      "enty": 4973,
      "ĠLou": 4974,
      "Ġmix": 4975,
      "ĠEmp": 4976,
      "gl": 4977,
      "Ġmeeting": 4978,
      "icks": 4979,
      "Ġchance": 4980,
      "Ġmaster": 4981,
      "Ġjournal": 4982,
      "Ġcontinuous": 4983,
      "Ġletter": 4984,
      "Ġ%": 4985,
      "Ġworkers": 4986,
      "asion": 4987,
      "rupt": 4988,
      "Ġveget": 4989,
      "Ġgrand": 4990,
      "ĠØ§ÙĦ": 4991,
      "Ġinteractions": 4992,
      "CE": 4993,
      "ÑģÐ¿": 4994,
      "Ġlos": 4995,
      "Ġsolid": 4996,
      "}_{": 4997,
      "ĠÐ½Ðµ": 4998,
      "Ġpet": 4999,
      "Ġinvolve": 5000,
      "02": 5001,
      "Ġrequest": 5002,
      "Ġonto": 5003,
      "Ġclosed": 5004,
      "Ġcoast": 5005,
      "Ġtal": 5006,
      "Ġplans": 5007,
      "Ġfinally": 5008,
      "Ġcreative": 5009,
      "Ġperhaps": 5010,
      "Ãł": 5011,
      "Ġ31": 5012,
      "Ġdrive": 5013,
      "Ġwife": 5014,
      "Ġsort": 5015,
      "ĠWind": 5016,
      "mosp": 5017,
      "omin": 5018,
      "Ġmi": 5019,
      "asket": 5020,
      "Ġpoll": 5021,
      "ĠSum": 5022,
      "Ġreasons": 5023,
      "67": 5024,
      "ĠSpanish": 5025,
      "Ġexhib": 5026,
      "Ġhttp": 5027,
      "Ġtried": 5028,
      "Ġsoil": 5029,
      "Ġfamous": 5030,
      "ĠSl": 5031,
      "ĠInc": 5032,
      "å¼": 5033,
      "Ġhop": 5034,
      "Ġclasses": 5035,
      "ait": 5036,
      "Ġprotection": 5037,
      "Ġdiss": 5038,
      "ded": 5039,
      "ĠHel": 5040,
      "Ġhappen": 5041,
      "iverse": 5042,
      "Ġcamer": 5043,
      "Ġsecret": 5044,
      "Ġpassage": 5045,
      "04": 5046,
      "Ġreplace": 5047,
      "Ġ_": 5048,
      "Ġhighest": 5049,
      "Ġhour": 5050,
      "Ġdespite": 5051,
      "well": 5052,
      "ĠSocial": 5053,
      "Ġsupply": 5054,
      "Ġfilled": 5055,
      "Section": 5056,
      "Ġfine": 5057,
      "Ġsituations": 5058,
      "07": 5059,
      "Ġcovered": 5060,
      "Ġdry": 5061,
      "Ġplanning": 5062,
      "Ind": 5063,
      "ped": 5064,
      "Ġteams": 5065,
      "Ġ1990": 5066,
      "urban": 5067,
      "ffect": 5068,
      "eal": 5069,
      "Ġwave": 5070,
      "Ġà¦": 5071,
      "Ġdetect": 5072,
      "ĠThus": 5073,
      "Ġ\\\\": 5074,
      "nel": 5075,
      "Ġbecoming": 5076,
      "Ġclin": 5077,
      "ĠIsrael": 5078,
      "inf": 5079,
      "Ġpretty": 5080,
      "Ġaward": 5081,
      "osure": 5082,
      "ĠCourt": 5083,
      "Ġargument": 5084,
      "times": 5085,
      "Ġtoward": 5086,
      "ih": 5087,
      "Ġí": 5088,
      "Ġoperation": 5089,
      "Ġguide": 5090,
      "Ġcouple": 5091,
      "Ġappoint": 5092,
      "Ġcold": 5093,
      "Ġlived": 5094,
      "Ġresulting": 5095,
      "Ġbeat": 5096,
      "Ġinterpret": 5097,
      "ĠEst": 5098,
      "idden": 5099,
      "Ġpolice": 5100,
      "rogen": 5101,
      "Ġ//": 5102,
      "Ġreduced": 5103,
      "Ġslowly": 5104,
      "Ġmetal": 5105,
      "Ġpieces": 5106,
      "ressed": 5107,
      "Ġcompleted": 5108,
      "data": 5109,
      "iced": 5110,
      "Ġeducational": 5111,
      "Ġexperiment": 5112,
      "unicip": 5113,
      "va": 5114,
      "igma": 5115,
      "Ġphone": 5116,
      "Ġreality": 5117,
      "Ġprinciples": 5118,
      "esc": 5119,
      "asks": 5120,
      "Ġrail": 5121,
      "azing": 5122,
      "Ġpractical": 5123,
      "Ġmath": 5124,
      "Ġlanguages": 5125,
      "Ġartists": 5126,
      "Ġcopy": 5127,
      "ĠSk": 5128,
      "ĠNor": 5129,
      "Ġexercise": 5130,
      "Ð½ÑĭÑħ": 5131,
      "Ġtesting": 5132,
      "åº": 5133,
      "prov": 5134,
      "ĠIS": 5135,
      "Ġreb": 5136,
      "resents": 5137,
      "ĠFurther": 5138,
      "ilit": 5139,
      "mary": 5140,
      "from": 5141,
      "ĠSur": 5142,
      "Ġhundred": 5143,
      "Out": 5144,
      "gra": 5145,
      "Ġheavy": 5146,
      "'.": 5147,
      "ĠCath": 5148,
      "Ġobserved": 5149,
      "Ġles": 5150,
      "AA": 5151,
      "apers": 5152,
      "Ġarm": 5153,
      "Ġcompl": 5154,
      "Ġproposed": 5155,
      "ĠCentral": 5156,
      "gn": 5157,
      "Ġdomain": 5158,
      "ĠMet": 5159,
      "orders": 5160,
      "Ġfavorite": 5161,
      "ĠAN": 5162,
      "inite": 5163,
      "house": 5164,
      "Ġsynt": 5165,
      "body": 5166,
      "ĠTex": 5167,
      "Ð°Ð´": 5168,
      "ĠChild": 5169,
      "Ġamb": 5170,
      "Ġdefe": 5171,
      "comes": 5172,
      "Ġreturns": 5173,
      "ras": 5174,
      "rum": 5175,
      "à¹": 5176,
      "42": 5177,
      "ategy": 5178,
      "Ġappeared": 5179,
      "ocol": 5180,
      "sey": 5181,
      "ĠLeg": 5182,
      "ĠPublic": 5183,
      "Ġbattle": 5184,
      "ht": 5185,
      "ĠIsland": 5186,
      "isation": 5187,
      "ĠSuper": 5188,
      "De": 5189,
      "Ġcapacity": 5190,
      "Ġthoughts": 5191,
      "ĠArmy": 5192,
      "ĠPower": 5193,
      "Ġfeeling": 5194,
      "Ġplanet": 5195,
      "Ġfrequency": 5196,
      "æĿ": 5197,
      "Ġpu": 5198,
      "Ġlibrary": 5199,
      "Ġrefers": 5200,
      "aste": 5201,
      "Ġmission": 5202,
      "Ġcommercial": 5203,
      "Ġrare": 5204,
      "ĠParty": 5205,
      "Ġapproximately": 5206,
      "88": 5207,
      "Ġsurrounding": 5208,
      "rier": 5209,
      "Ð¸ÑĢ": 5210,
      "Ġcontribute": 5211,
      "Ġpriorit": 5212,
      "ëĬĶ": 5213,
      "Ġannounced": 5214,
      "56": 5215,
      "DF": 5216,
      "Ġprofession": 5217,
      "Ġadvanced": 5218,
      "_{\\": 5219,
      "ml": 5220,
      "Ġspaces": 5221,
      "writ": 5222,
      "gu": 5223,
      "Ġrepresents": 5224,
      "water": 5225,
      "ĠForm": 5226,
      "Ġax": 5227,
      "Ġpreviously": 5228,
      ")=": 5229,
      "Ġconnections": 5230,
      "Ġsatisf": 5231,
      "ĠQuestion": 5232,
      "06": 5233,
      "Ġapart": 5234,
      "ê°": 5235,
      "åĨ": 5236,
      "57": 5237,
      "Ġtrib": 5238,
      "mathbb": 5239,
      "ĠâĢ¦": 5240,
      "Ġdistrict": 5241,
      "Ġcu": 5242,
      "ads": 5243,
      "ĠToday": 5244,
      "Ġreaction": 5245,
      "Ġparameters": 5246,
      "ĠAcadem": 5247,
      "ishing": 5248,
      "Ġconcerns": 5249,
      "ĠTime": 5250,
      "urd": 5251,
      "istan": 5252,
      "Ġstrategy": 5253,
      "edy": 5254,
      "ĠHen": 5255,
      "elines": 5256,
      "iform": 5257,
      "Ã£o": 5258,
      "oes": 5259,
      "Ġproof": 5260,
      "Ġfederal": 5261,
      "Ġdirector": 5262,
      "van": 5263,
      "uls": 5264,
      "orage": 5265,
      "}^": 5266,
      "Ġregions": 5267,
      "03": 5268,
      "Ġterrit": 5269,
      "ĠÐ»": 5270,
      "Ġsymbol": 5271,
      "ÐµÐ½Ð¸Ðµ": 5272,
      "Ġpartners": 5273,
      "Ġeconomy": 5274,
      "ports": 5275,
      "align": 5276,
      "ĠList": 5277,
      "Ġmorning": 5278,
      "à«": 5279,
      "Ġspecifically": 5280,
      "ĠPremise": 5281,
      "Ġleaving": 5282,
      "Ġrank": 5283,
      "ĠChampions": 5284,
      "ĠExpl": 5285,
      "Ġemotional": 5286,
      "Am": 5287,
      "ĠTom": 5288,
      "ĠWork": 5289,
      "43": 5290,
      "Ġpages": 5291,
      "ĠFound": 5292,
      "Ġur": 5293,
      "EL": 5294,
      "asure": 5295,
      "cel": 5296,
      "ĠAustralian": 5297,
      "ĠGreek": 5298,
      "Ġstreet": 5299,
      "ĠFranc": 5300,
      "CC": 5301,
      "box": 5302,
      "win": 5303,
      "Ġindex": 5304,
      "allel": 5305,
      "ĠMath": 5306,
      "ache": 5307,
      "Ġdivers": 5308,
      "æī": 5309,
      "Stud": 5310,
      "ĠSecond": 5311,
      "Ġsignal": 5312,
      "Ġblog": 5313,
      "Ġcontrast": 5314,
      "Ġprepar": 5315,
      "People": 5316,
      "Ġteach": 5317,
      "ĠElect": 5318,
      "ĠGold": 5319,
      "Ġsell": 5320,
      "ĠIN": 5321,
      "ĠData": 5322,
      "Ġrecorded": 5323,
      "Ġimmediately": 5324,
      "ĠFore": 5325,
      "Ġscene": 5326,
      "Ġsen": 5327,
      "issions": 5328,
      "ita": 5329,
      "Ġsubsequ": 5330,
      "à±": 5331,
      "Ġsimpl": 5332,
      "ĠCanadian": 5333,
      "ĠFe": 5334,
      "olve": 5335,
      "Ġap": 5336,
      "IF": 5337,
      "Ġrul": 5338,
      "ĠWhite": 5339,
      "Ġign": 5340,
      "ĠMount": 5341,
      "Ġhappens": 5342,
      "hi": 5343,
      "what": 5344,
      "ĠKore": 5345,
      "Ġ2021": 5346,
      "ĠWhy": 5347,
      "vis": 5348,
      "Ġforeign": 5349,
      "Ġreaders": 5350,
      "astern": 5351,
      "Ġcities": 5352,
      "ĠScott": 5353,
      "Ġselected": 5354,
      "Ġju": 5355,
      "ĠLife": 5356,
      "Ġinterests": 5357,
      "Ġ80": 5358,
      "Ġopin": 5359,
      "Ġtests": 5360,
      "mm": 5361,
      "Ġphen": 5362,
      "Chapter": 5363,
      "rors": 5364,
      "While": 5365,
      "Ġegg": 5366,
      "Ġpromote": 5367,
      "Ġunivers": 5368,
      "Ġprefer": 5369,
      "Ġlik": 5370,
      "Ġhelped": 5371,
      "Ġriver": 5372,
      "åı¯": 5373,
      "olved": 5374,
      "ena": 5375,
      "Ġbenefit": 5376,
      "omial": 5377,
      "ructure": 5378,
      "ometry": 5379,
      "Ġmentioning": 5380,
      "ĠSal": 5381,
      "Ġbuildings": 5382,
      "ĠTherefore": 5383,
      "Ġweak": 5384,
      "Ġarray": 5385,
      "itutions": 5386,
      "anned": 5387,
      "Ġminor": 5388,
      "Ġphase": 5389,
      "Ġhappy": 5390,
      "Ġslightly": 5391,
      "Ġreached": 5392,
      "Ġadding": 5393,
      "Ġcolumn": 5394,
      "éĩ": 5395,
      "Cont": 5396,
      "Ġadvance": 5397,
      "OP": 5398,
      "df": 5399,
      "95": 5400,
      "Ġera": 5401,
      "å¹": 5402,
      "Ġinternal": 5403,
      "Ġexpert": 5404,
      "Ġalt": 5405,
      "Ġteachers": 5406,
      "Ġlayer": 5407,
      "alpha": 5408,
      "going": 5409,
      "IG": 5410,
      "ĠVer": 5411,
      "Ġotherwise": 5412,
      "estic": 5413,
      "EM": 5414,
      "Ġintellig": 5415,
      "Ġauthors": 5416,
      "ĠMem": 5417,
      "Ġ1980": 5418,
      "ĠEvery": 5419,
      "Ġrequirements": 5420,
      "igenous": 5421,
      "Ġsi": 5422,
      "Ġevolution": 5423,
      "ĠService": 5424,
      "Ġkill": 5425,
      "Ġattrib": 5426,
      "ĠMag": 5427,
      "Ġsav": 5428,
      "alysis": 5429,
      "ogen": 5430,
      "ĠBi": 5431,
      "Ġteacher": 5432,
      "ĠPlan": 5433,
      "Some": 5434,
      "acher": 5435,
      "ï¼ļ": 5436,
      "Ġagricult": 5437,
      "Ġ90": 5438,
      "ipped": 5439,
      "Ġrise": 5440,
      "å¯": 5441,
      "sect": 5442,
      "Ð°Ñģ": 5443,
      "Ġmotion": 5444,
      "ĠRad": 5445,
      "ĠNav": 5446,
      "Ġeffectively": 5447,
      "Ġatmosp": 5448,
      "ĠRob": 5449,
      "Ġstars": 5450,
      "Ġvary": 5451,
      "related": 5452,
      "Ġdream": 5453,
      "irgin": 5454,
      "abel": 5455,
      "Ġwasn": 5456,
      "Ġdialogue": 5457,
      "igr": 5458,
      "Ġkilled": 5459,
      "position": 5460,
      "ĠTer": 5461,
      "Ġviews": 5462,
      "Ġdoctor": 5463,
      "Ġlic": 5464,
      "ĠDan": 5465,
      "IL": 5466,
      "ĠIr": 5467,
      "ĠProt": 5468,
      "TS": 5469,
      "Ġruns": 5470,
      "level": 5471,
      "Ġbusinesses": 5472,
      "Ġ35": 5473,
      "het": 5474,
      "ĠPen": 5475,
      "Ġbehavi": 5476,
      "tion": 5477,
      "Ġinsights": 5478,
      "ĠCD": 5479,
      "!\"": 5480,
      "Ġtrou": 5481,
      "Ð°ÐµÑĤ": 5482,
      "erved": 5483,
      "ĠThomas": 5484,
      "Ġstanding": 5485,
      "Ġchallenging": 5486,
      "ota": 5487,
      ",\\": 5488,
      "Ġweather": 5489,
      "Ð°ÑĨ": 5490,
      "}{\\": 5491,
      "Ġinterested": 5492,
      "itc": 5493,
      "Ġ;": 5494,
      "Ġeasier": 5495,
      "Ġscore": 5496,
      "Ġstandards": 5497,
      "ione": 5498,
      "76": 5499,
      "ĠArab": 5500,
      "ĠProgram": 5501,
      "âĢĿ.": 5502,
      "Ġhear": 5503,
      "Ġsongs": 5504,
      "ÐµÐ»ÑĮ": 5505,
      "Ġroot": 5506,
      "Ð°Ð»ÑĮ": 5507,
      "Ġcandid": 5508,
      "Ġshowed": 5509,
      "htt": 5510,
      "Ġsides": 5511,
      "ĠÙĪ": 5512,
      "Res": 5513,
      "amental": 5514,
      "Ġsexual": 5515,
      "Ġknew": 5516,
      "Ġdoub": 5517,
      "Ġtruth": 5518,
      "Ġchanging": 5519,
      "Ġpal": 5520,
      "Ġresistance": 5521,
      "ĠAI": 5522,
      "eline": 5523,
      "icit": 5524,
      "Ġpolicies": 5525,
      "Ġsand": 5526,
      "Ġmist": 5527,
      "ĠEqu": 5528,
      "Ġmaybe": 5529,
      "Ġfear": 5530,
      "bar": 5531,
      "Ġholding": 5532,
      "orph": 5533,
      "ando": 5534,
      "ĠAnn": 5535,
      "ĠÐ²Ñĭ": 5536,
      "amily": 5537,
      "ĠFind": 5538,
      "ĠPlay": 5539,
      "AB": 5540,
      "Ġfol": 5541,
      "Ġsharing": 5542,
      "UN": 5543,
      "Ġtalking": 5544,
      "ipe": 5545,
      "Ġimplic": 5546,
      "ĊĊĠĠĠ": 5547,
      "Ġwearing": 5548,
      "ĠDistrict": 5549,
      "ĠDi": 5550,
      "Ġship": 5551,
      "Ġfaith": 5552,
      "ĠRussian": 5553,
      "Ġapproaches": 5554,
      "py": 5555,
      "ĠTexas": 5556,
      "rence": 5557,
      "That": 5558,
      "Ġtro": 5559,
      "ona": 5560,
      "Ġcraft": 5561,
      "ĠCompany": 5562,
      "Ġjoint": 5563,
      "eder": 5564,
      "Ġrecords": 5565,
      "ĠClub": 5566,
      "ĠRobert": 5567,
      "These": 5568,
      "Ġeating": 5569,
      "41": 5570,
      "but": 5571,
      "Ġbottom": 5572,
      "ressive": 5573,
      "akers": 5574,
      "Ð¸Ð»": 5575,
      "Ġdiscussion": 5576,
      "word": 5577,
      "Ġcro": 5578,
      "Ġexcell": 5579,
      "Ġrespectively": 5580,
      "iled": 5581,
      "ĠBus": 5582,
      "Ġinterview": 5583,
      "ĠAD": 5584,
      "Ġnotes": 5585,
      "æľī": 5586,
      "ĠComput": 5587,
      "atically": 5588,
      "ä¸Ń": 5589,
      "ola": 5590,
      "Ġsmooth": 5591,
      "Ġtopics": 5592,
      "Ġwalking": 5593,
      "state": 5594,
      "Ġsolar": 5595,
      "ĠDisc": 5596,
      "rich": 5597,
      "Ġbrief": 5598,
      "ographic": 5599,
      "ĠKingdom": 5600,
      "}(": 5601,
      "ĥ½": 5602,
      "ĠOnce": 5603,
      "mu": 5604,
      "Ġfixed": 5605,
      "Ġhttps": 5606,
      "Ġdoll": 5607,
      "ĠBob": 5608,
      "ront": 5609,
      "ĠBas": 5610,
      "Ġremained": 5611,
      "Ġspot": 5612,
      "Ġedge": 5613,
      "ĠMiss": 5614,
      "Ġupper": 5615,
      "Ġdefine": 5616,
      "aming": 5617,
      "ĠBest": 5618,
      "Ġeast": 5619,
      "Ġabsolute": 5620,
      "Ġdoor": 5621,
      "ĠFil": 5622,
      "Yes": 5623,
      "Ġhelping": 5624,
      "cdot": 5625,
      "sub": 5626,
      "aciÃ³n": 5627,
      "Ġ70": 5628,
      "Ð½ÑĭÐµ": 5629,
      "coh": 5630,
      "Ġimagine": 5631,
      "ambda": 5632,
      "Ġsevere": 5633,
      "Ġmajority": 5634,
      "ette": 5635,
      "othing": 5636,
      "Ġadults": 5637,
      "è§": 5638,
      "éĹ": 5639,
      "Ġcompetition": 5640,
      "ĠFree": 5641,
      "Ġcommonly": 5642,
      "ĠPlease": 5643,
      "Ġwaste": 5644,
      "ĠJesus": 5645,
      "From": 5646,
      "Ġbacter": 5647,
      "Ġpp": 5648,
      "Ġhabit": 5649,
      "Ġcontinues": 5650,
      "rics": 5651,
      "Ġdescribe": 5652,
      "ĠUsing": 5653,
      "Ġbaby": 5654,
      "ĠAward": 5655,
      "Ġleader": 5656,
      "Ø¹": 5657,
      "ĠBre": 5658,
      "Ġaudience": 5659,
      "ĠSee": 5660,
      "yes": 5661,
      "Ġvirus": 5662,
      "Ġannual": 5663,
      "ĠWil": 5664,
      "Ġdownload": 5665,
      "Ġwindow": 5666,
      "ĠGood": 5667,
      "Ġhuge": 5668,
      "åĩ": 5669,
      "Ġfirm": 5670,
      "ä¸į": 5671,
      "ĠAngel": 5672,
      "Ġcitizens": 5673,
      "fered": 5674,
      "ystem": 5675,
      "ĠTw": 5676,
      "Ġtechnique": 5677,
      "olars": 5678,
      "Ġdeeper": 5679,
      "Ġprioritize": 5680,
      "ĠRoad": 5681,
      "ä»¥": 5682,
      "Ġfascinating": 5683,
      "âĢĿ,": 5684,
      "Ġphilosoph": 5685,
      "Ġtechnologies": 5686,
      "ì§": 5687,
      "ĠPython": 5688,
      "Ġprogramming": 5689,
      "ĠJul": 5690,
      "Ġschem": 5691,
      "Ġfuel": 5692,
      "Ġopening": 5693,
      "Ġconflict": 5694,
      "Ġengineering": 5695,
      "Ġgar": 5696,
      "Ġclick": 5697,
      "Ġimpl": 5698,
      "Ġlooked": 5699,
      "Ġreplaced": 5700,
      "pol": 5701,
      "Ġmeant": 5702,
      "gypt": 5703,
      "ĠEngine": 5704,
      "En": 5705,
      "Le": 5706,
      "Ġbud": 5707,
      "enced": 5708,
      "Ġcustomer": 5709,
      "Ġdensity": 5710,
      "Ġobtained": 5711,
      "cular": 5712,
      "lis": 5713,
      "anguage": 5714,
      "Ġdepending": 5715,
      "Ġcombination": 5716,
      "ĠBecause": 5717,
      "ĠÐµ": 5718,
      "ĠĊĠĊ": 5719,
      "asy": 5720,
      "Ġdetermined": 5721,
      "ĠWater": 5722,
      "ĠCre": 5723,
      "Ġminim": 5724,
      "Ġq": 5725,
      "Ġhappened": 5726,
      "Ġcreation": 5727,
      "ĠAmericans": 5728,
      "Ġcustomers": 5729,
      "Ġcombined": 5730,
      "itors": 5731,
      "Ġjoined": 5732,
      "Ġtut": 5733,
      "Ġbrand": 5734,
      "ĠMo": 5735,
      "Ġwest": 5736,
      "ĠTim": 5737,
      "ĠId": 5738,
      "ĠAM": 5739,
      "Ġartist": 5740,
      "can": 5741,
      "ĠMont": 5742,
      "Eng": 5743,
      "thlet": 5744,
      "ais": 5745,
      "Ġprotein": 5746,
      "Ġtrig": 5747,
      "iament": 5748,
      "Ġleads": 5749,
      "ĠCongress": 5750,
      "Ġ45": 5751,
      "Ġ{\\": 5752,
      "Ġcomplic": 5753,
      "Ġdisapp": 5754,
      "Ġmostly": 5755,
      "Ġpor": 5756,
      "Ġgender": 5757,
      "poses": 5758,
      "Ġholds": 5759,
      "Ġacademic": 5760,
      "Ġnice": 5761,
      "Ġaf": 5762,
      "Ġcorresponding": 5763,
      "Ġremaining": 5764,
      "Ġbillion": 5765,
      "98": 5766,
      "ansion": 5767,
      "Ġtiss": 5768,
      "Post": 5769,
      "Ã±": 5770,
      "ĠIre": 5771,
      "ĠFre": 5772,
      "Ġoccurs": 5773,
      "hetic": 5774,
      "Ġdaughter": 5775,
      "Ġvoc": 5776,
      "Ġsales": 5777,
      "Ġid": 5778,
      "ĠâĢ¢": 5779,
      "ĠÚ©": 5780,
      "Ġcontaining": 5781,
      "den": 5782,
      "à¯į": 5783,
      "ê³": 5784,
      "iki": 5785,
      "CH": 5786,
      "Ð°Ð¶": 5787,
      "ĠItalian": 5788,
      "Ġidentified": 5789,
      "venue": 5790,
      "æĢ": 5791,
      "Ð¸Ñģ": 5792,
      "Ġgun": 5793,
      "Ġintended": 5794,
      "ĠKh": 5795,
      "athy": 5796,
      "ĠSing": 5797,
      "Ġcircum": 5798,
      "fit": 5799,
      "Ġincome": 5800,
      "icians": 5801,
      "Ġcolors": 5802,
      "à¥į": 5803,
      "ĠFrank": 5804,
      "Ġoffered": 5805,
      "ĠSmith": 5806,
      "ĠLu": 5807,
      "ĠBoth": 5808,
      "orough": 5809,
      "Ġcomponent": 5810,
      "ĠDevelopment": 5811,
      "Two": 5812,
      "Ġmel": 5813,
      "lick": 5814,
      "Ġbodies": 5815,
      "array": 5816,
      "anta": 5817,
      "nic": 5818,
      "Ġsac": 5819,
      "Ġgirls": 5820,
      "ĠPeter": 5821,
      "ĠNews": 5822,
      "Ġgenerated": 5823,
      "ĠFlor": 5824,
      "Ġgeneration": 5825,
      "uation": 5826,
      "ĠConf": 5827,
      "anted": 5828,
      "ĠGoogle": 5829,
      "imb": 5830,
      "iration": 5831,
      "inn": 5832,
      "anges": 5833,
      "Ġconscious": 5834,
      "ĠMass": 5835,
      "ella": 5836,
      "ormal": 5837,
      "Ġliqu": 5838,
      "ĠAdditionally": 5839,
      "Ġabsor": 5840,
      "Ġisland": 5841,
      "Ġrelatively": 5842,
      "Ġfoods": 5843,
      "ĠMiddle": 5844,
      "oses": 5845,
      "bour": 5846,
      "Ġyield": 5847,
      "Ġbelieved": 5848,
      "otal": 5849,
      "ĠInf": 5850,
      "ĠJewish": 5851,
      "uting": 5852,
      "uilding": 5853,
      "Ġprocessing": 5854,
      "Ġreferred": 5855,
      "ĠGen": 5856,
      "Ġratio": 5857,
      "Ġframew": 5858,
      "yr": 5859,
      "ĠTor": 5860,
      "Ġarticles": 5861,
      "ĠIslam": 5862,
      "Ġnetworks": 5863,
      "elta": 5864,
      "section": 5865,
      "Ġbreadth": 5866,
      "':": 5867,
      "Ġguitar": 5868,
      "Ġvel": 5869,
      "')": 5870,
      "à¤°": 5871,
      "celer": 5872,
      "Ġsend": 5873,
      "pping": 5874,
      "-\\": 5875,
      "ady": 5876,
      "ĠVict": 5877,
      "provoking": 5878,
      "Ġcategory": 5879,
      "ĠÐ´Ð»Ñı": 5880,
      "Can": 5881,
      "iveness": 5882,
      "Ġsociet": 5883,
      "Ġintegr": 5884,
      "ÄŁ": 5885,
      "Ġsounds": 5886,
      "Ġflo": 5887,
      "arian": 5888,
      "Ġorigin": 5889,
      "ĠAtl": 5890,
      "54": 5891,
      "Ġjump": 5892,
      "net": 5893,
      "Ġmarried": 5894,
      "Ġsitting": 5895,
      "inder": 5896,
      "They": 5897,
      "bi": 5898,
      "azine": 5899,
      "ĠCam": 5900,
      "Ġclearly": 5901,
      "Ġthr": 5902,
      "Ġpun": 5903,
      "Ġsupported": 5904,
      "west": 5905,
      "ĠAtt": 5906,
      "ĠEmpire": 5907,
      "Ġresource": 5908,
      "iat": 5909,
      "ĠMathemat": 5910,
      "Ġàª": 5911,
      "ĠHistor": 5912,
      "Ġexistence": 5913,
      "Ġurban": 5914,
      "BS": 5915,
      "æĥ": 5916,
      "ĠCharles": 5917,
      "Ġengage": 5918,
      "ĠGovernment": 5919,
      "Ġchart": 5920,
      "Ġsin": 5921,
      "Ġcas": 5922,
      "itt": 5923,
      "ĠDivision": 5924,
      "ston": 5925,
      "Ġfloor": 5926,
      "raint": 5927,
      "Ġ1997": 5928,
      "Ġremove": 5929,
      "Ab": 5930,
      "ulf": 5931,
      "oving": 5932,
      "çĽ": 5933,
      "under": 5934,
      "Ġalign": 5935,
      "oma": 5936,
      "Ġsnow": 5937,
      "ĠBill": 5938,
      "ĠEr": 5939,
      "Ġelection": 5940,
      "Ġexperienced": 5941,
      "Ġoutcomes": 5942,
      "Ġangle": 5943,
      "ĠMuseum": 5944,
      "asketball": 5945,
      "osite": 5946,
      "Ġmotiv": 5947,
      "arp": 5948,
      "ĠLouis": 5949,
      "ä¸º": 5950,
      "Ġstock": 5951,
      "Ġvision": 5952,
      "Ġaffected": 5953,
      "Ġprimarily": 5954,
      "Ġinvolving": 5955,
      "ĠMusic": 5956,
      "ĠPM": 5957,
      "Ġmanage": 5958,
      "ĠOld": 5959,
      "{{": 5960,
      "ĠEgypt": 5961,
      "ĠAP": 5962,
      "ented": 5963,
      "riage": 5964,
      "Ġequivalent": 5965,
      "Ġaccurate": 5966,
      "Ø´": 5967,
      "Ġincreases": 5968,
      "Ġneut": 5969,
      "burg": 5970,
      "ä¸ª": 5971,
      "itter": 5972,
      "Ġoffering": 5973,
      "ĠUnderstanding": 5974,
      "ĠProject": 5975,
      "Ġmo": 5976,
      "Not": 5977,
      "ĠTop": 5978,
      "Ġenhance": 5979,
      "theta": 5980,
      "Ġelim": 5981,
      "Ġnative": 5982,
      "ĠConsider": 5983,
      "Ġreports": 5984,
      "Ġoriginally": 5985,
      "History": 5986,
      "ho": 5987,
      "Ġshot": 5988,
      "ĠÃ©": 5989,
      "ĠHuman": 5990,
      "Ġexchange": 5991,
      "Ġpoly": 5992,
      "Ġfundamental": 5993,
      "arsh": 5994,
      "ĠHome": 5995,
      "Ġwinter": 5996,
      "ails": 5997,
      "ĠAsia": 5998,
      "liament": 5999,
      "ĠChic": 6000,
      "Ġpush": 6001,
      "Ġminimum": 6002,
      "Ġowners": 6003,
      "Ġcritic": 6004,
      "ua": 6005,
      "Ġdin": 6006,
      "Ġconclusion": 6007,
      "First": 6008,
      "Ġtasks": 6009,
      "lig": 6010,
      "ĠÑĦ": 6011,
      "ĠMax": 6012,
      "Ġwhom": 6013,
      "ĠIreland": 6014,
      "Ġfinished": 6015,
      "However": 6016,
      "Ġwidely": 6017,
      "ocation": 6018,
      "å¾": 6019,
      "Ġdive": 6020,
      "list": 6021,
      "bal": 6022,
      "Ġ1970": 6023,
      "ĠGal": 6024,
      "ĠDesign": 6025,
      "Ġdestroy": 6026,
      "Ġquantum": 6027,
      "ĠCho": 6028,
      "Ġmouth": 6029,
      "åĮ": 6030,
      "Ġcloud": 6031,
      "Ġwants": 6032,
      "ĠRoyal": 6033,
      "Ã¢": 6034,
      "top": 6035,
      "ĠØ¯": 6036,
      "Ġbirths": 6037,
      "Ø§ÙĨ": 6038,
      "ĠManagement": 6039,
      "Ġensuring": 6040,
      "Ġtranslation": 6041,
      "Ġconfig": 6042,
      "sm": 6043,
      "ĠOh": 6044,
      "Ġmissing": 6045,
      "Col": 6046,
      "Ġflex": 6047,
      "ÐµÐ³": 6048,
      "Ð°Ð±": 6049,
      "ourse": 6050,
      "Ġclar": 6051,
      "ĠJose": 6052,
      "Me": 6053,
      "Ġnotice": 6054,
      "Ġ1996": 6055,
      "Ġcarried": 6056,
      "anda": 6057,
      "Ġfounded": 6058,
      "Ġshowing": 6059,
      "Ġfocused": 6060,
      "She": 6061,
      "Ġtransition": 6062,
      "Ð¸ÑĤÑĮ": 6063,
      "Ġreasoning": 6064,
      "ether": 6065,
      "ĠSet": 6066,
      "OM": 6067,
      "RA": 6068,
      "sin": 6069,
      "Ø²": 6070,
      "áº": 6071,
      "rb": 6072,
      "åĬ¨": 6073,
      "Ġrepresentation": 6074,
      "Ġtherapy": 6075,
      "Ð¾Ð²Ð°Ð½": 6076,
      "('": 6077,
      "])": 6078,
      "rid": 6079,
      "Ġletters": 6080,
      "inity": 6081,
      "ĠOF": 6082,
      "ÃŃa": 6083,
      "Ġlessons": 6084,
      "ãģ®": 6085,
      "hand": 6086,
      "Ġfreedom": 6087,
      "while": 6088,
      "ĠStand": 6089,
      "Ġcalculate": 6090,
      "ĠExp": 6091,
      "Ġfif": 6092,
      "Ġthousands": 6093,
      "estival": 6094,
      "ĠJo": 6095,
      "Ġconsult": 6096,
      "Ġappearance": 6097,
      "53": 6098,
      "ĠAdd": 6099,
      "ications": 6100,
      "ĠCarol": 6101,
      "icon": 6102,
      "comm": 6103,
      "kin": 6104,
      "Ġconsists": 6105,
      "ĠCatholic": 6106,
      "tes": 6107,
      "ML": 6108,
      "Ġremoved": 6109,
      "52": 6110,
      "63": 6111,
      "ÐµÑģ": 6112,
      "Ġideal": 6113,
      "Ġestimated": 6114,
      "Ġstorage": 6115,
      "Ġrepresented": 6116,
      "Ġlegisl": 6117,
      "Ġmotor": 6118,
      "Ġfeelings": 6119,
      "iy": 6120,
      "500": 6121,
      "Ġprove": 6122,
      "ffee": 6123,
      "Ġexternal": 6124,
      "ashion": 6125,
      "Ġbow": 6126,
      "Once": 6127,
      "Sp": 6128,
      "Ġsuggests": 6129,
      "Ġcausing": 6130,
      "Ġrecon": 6131,
      "enses": 6132,
      "ĠOrgan": 6133,
      "Ġalgebra": 6134,
      "à¥ĩ": 6135,
      "Ġstated": 6136,
      "ĠÂłĠÂł": 6137,
      "Ġkept": 6138,
      "EX": 6139,
      "Solution": 6140,
      "apping": 6141,
      "enth": 6142,
      "Ġguess": 6143,
      "anged": 6144,
      "Ġaren": 6145,
      "Ġincred": 6146,
      "Ġnoted": 6147,
      "itage": 6148,
      "Ġroles": 6149,
      "ĠInstead": 6150,
      "Ġparties": 6151,
      "eria": 6152,
      "des": 6153,
      "ĠLord": 6154,
      "Ġcrow": 6155,
      "Ġvast": 6156,
      "ĠStat": 6157,
      "Ġhospital": 6158,
      "ĠOpen": 6159,
      "Ġmode": 6160,
      ")$$": 6161,
      "Ġjoin": 6162,
      "amma": 6163,
      "ĠMad": 6164,
      "ums": 6165,
      "Ġcharacteristics": 6166,
      "Ġprompt": 6167,
      "Ġfigures": 6168,
      "Ġrestaur": 6169,
      "itness": 6170,
      "igration": 6171,
      "Ġparticles": 6172,
      "Ġ32": 6173,
      "Ġlies": 6174,
      "Ġimproved": 6175,
      "Ġgrav": 6176,
      "Ġdegrees": 6177,
      "ìļ": 6178,
      "Ġagg": 6179,
      "Ġinstitutions": 6180,
      "type": 6181,
      "Ġsigns": 6182,
      "osa": 6183,
      "alled": 6184,
      "ĠVirgin": 6185,
      "oviet": 6186,
      "51": 6187,
      "ÑĥÑĤ": 6188,
      "Ġcycle": 6189,
      "ircraft": 6190,
      "ala": 6191,
      "Ġoperating": 6192,
      "oding": 6193,
      "ĠSar": 6194,
      "Ġnumer": 6195,
      "ĠOper": 6196,
      "Ġpaid": 6197,
      "Ġvital": 6198,
      "Ġdiseases": 6199,
      "Ġconsidering": 6200,
      "Ġingred": 6201,
      "ĠCommission": 6202,
      "ĠST": 6203,
      "Ġkid": 6204,
      "Ġnuclear": 6205,
      "Ġgod": 6206,
      "62": 6207,
      "Ġconsequences": 6208,
      "empl": 6209,
      "Ġelectron": 6210,
      "ĠCult": 6211,
      "SS": 6212,
      "Ġchosen": 6213,
      "sembly": 6214,
      "Ġextremely": 6215,
      "ÑĥÑİ": 6216,
      "Ġstarts": 6217,
      "Ġwriter": 6218,
      "Ġkeeping": 6219,
      "Ġformal": 6220,
      "Ġdescription": 6221,
      "Ġphenomen": 6222,
      "Ġfrequently": 6223,
      "Ġamazing": 6224,
      "erg": 6225,
      "ĠMicro": 6226,
      "Ġcredit": 6227,
      "Ġbatter": 6228,
      "ÐµÐ½ÑĤ": 6229,
      "plan": 6230,
      "ĠInternet": 6231,
      "Acc": 6232,
      "ĠÐĴ": 6233,
      "Ġda": 6234,
      "zing": 6235,
      "Ùģ": 6236,
      "Ġobvious": 6237,
      "Ġmunicip": 6238,
      "ipping": 6239,
      "jo": 6240,
      "Ġadvantage": 6241,
      "iders": 6242,
      "Ġparallel": 6243,
      "Ġcamera": 6244,
      "PA": 6245,
      "IM": 6246,
      "--------------------------------": 6247,
      "Ġdeaths": 6248,
      "illa": 6249,
      "stein": 6250,
      "Ġwait": 6251,
      "Ġderiv": 6252,
      "Ġspring": 6253,
      "ĠNote": 6254,
      "Ġgather": 6255,
      "Ġcouldn": 6256,
      "ĠTHE": 6257,
      "ĠSpe": 6258,
      "uy": 6259,
      "æ´": 6260,
      "rog": 6261,
      "ifies": 6262,
      "Bl": 6263,
      "Ġcars": 6264,
      "coming": 6265,
      "ĠAcademy": 6266,
      "ĠMexico": 6267,
      "Ġfalse": 6268,
      "ĠWeb": 6269,
      "omy": 6270,
      "Ġlib": 6271,
      "Ġhighlight": 6272,
      "\\\\": 6273,
      "äºĨ": 6274,
      "Ġdedicated": 6275,
      "ĠGrand": 6276,
      "ĠUN": 6277,
      "ĠYear": 6278,
      "ibilities": 6279,
      "Ġphysics": 6280,
      "Ġfaced": 6281,
      "èĢ": 6282,
      "ĠLake": 6283,
      "ĠFoot": 6284,
      "è¡Į": 6285,
      "Ġtwice": 6286,
      "Ġsyn": 6287,
      "ĠPo": 6288,
      "Ġsugar": 6289,
      "roph": 6290,
      "ĠCap": 6291,
      "Ġforced": 6292,
      "Ġpros": 6293,
      "Ġfamiliar": 6294,
      "Ġlatest": 6295,
      "Ġweap": 6296,
      "Ġ(\"": 6297,
      "OC": 6298,
      "Ġefficiency": 6299,
      "arant": 6300,
      "Ġtun": 6301,
      "Ġpaint": 6302,
      "ìĹĲ": 6303,
      "Ġtherm": 6304,
      "ĠBig": 6305,
      "Ġextended": 6306,
      "74": 6307,
      "72": 6308,
      "Ġmarg": 6309,
      "ĠJun": 6310,
      "Ġhyper": 6311,
      "Ġparticipants": 6312,
      "nergy": 6313,
      "Ġspend": 6314,
      "Ġmusical": 6315,
      "Ġspiritual": 6316,
      "ĠColumb": 6317,
      "Ġ2022": 6318,
      "Ġraised": 6319,
      "Ã©s": 6320,
      "Ġselection": 6321,
      "Ġfort": 6322,
      "Ġocean": 6323,
      "ĠMel": 6324,
      "ĉĉ": 6325,
      "Ġformation": 6326,
      "ingly": 6327,
      "Ġfill": 6328,
      "road": 6329,
      "rat": 6330,
      "Ġnor": 6331,
      "Ġemerg": 6332,
      "ĠLike": 6333,
      "Ġplus": 6334,
      "Ġprepared": 6335,
      "73": 6336,
      "ĠMake": 6337,
      "ìĿĦ": 6338,
      "Ġcorpor": 6339,
      "abs": 6340,
      "Ġjustice": 6341,
      "Ð°Ð¿": 6342,
      "bed": 6343,
      "Ãº": 6344,
      "agraph": 6345,
      "Ġdance": 6346,
      "Ġiniti": 6347,
      "Ġdivided": 6348,
      "Ġvs": 6349,
      "Ġperspective": 6350,
      "Ġexists": 6351,
      "Ġ${\\": 6352,
      "89": 6353,
      "ĠÐ¸Ð·": 6354,
      "ĠGet": 6355,
      "Ġassign": 6356,
      "Ġdatab": 6357,
      "Ġ1995": 6358,
      "Ġhealthcare": 6359,
      "Ġ^": 6360,
      "ìĦ": 6361,
      "zen": 6362,
      "Ġlisted": 6363,
      "Ġindustrial": 6364,
      "cohol": 6365,
      "orrow": 6366,
      "61": 6367,
      "olving": 6368,
      "Ġpossess": 6369,
      "Äģ": 6370,
      "ĠMer": 6371,
      "Ġsettle": 6372,
      "Ġexcess": 6373,
      "Ġknows": 6374,
      "Ġcoach": 6375,
      "ses": 6376,
      "utch": 6377,
      "Ġcert": 6378,
      "Ġobtain": 6379,
      "Ġthemes": 6380,
      "Ġdogs": 6381,
      "ĠRock": 6382,
      "Ġchain": 6383,
      "Ġmere": 6384,
      "Ġvehicle": 6385,
      "Ġclassic": 6386,
      "Su": 6387,
      "ocratic": 6388,
      "Ġagree": 6389,
      "ĠShow": 6390,
      "Ġcalls": 6391,
      "Ġreligion": 6392,
      "Ġrh": 6393,
      "ĠWho": 6394,
      "asp": 6395,
      "71": 6396,
      "ortunately": 6397,
      "Ġuniverse": 6398,
      "Ġsigned": 6399,
      "Ġspeech": 6400,
      "ĠPac": 6401,
      "othe": 6402,
      "Ġepisode": 6403,
      "ĠÐŁ": 6404,
      "how": 6405,
      "Ġadvoc": 6406,
      "è¿Ļ": 6407,
      "Ġsmart": 6408,
      "Ġstations": 6409,
      "Ġflat": 6410,
      "amm": 6411,
      "plot": 6412,
      "Ġchoices": 6413,
      "Ġincreasingly": 6414,
      "ican": 6415,
      "Ġsurg": 6416,
      "inates": 6417,
      "Ġplane": 6418,
      "Ġitem": 6419,
      "ygen": 6420,
      "/>": 6421,
      "Ġbright": 6422,
      "Ð¾Ð¿": 6423,
      "Ġparameter": 6424,
      "ÐµÑģÐº": 6425,
      "Ġbegins": 6426,
      "import": 6427,
      "èĥ½": 6428,
      "Ġsnipp": 6429,
      "Why": 6430,
      "Ġec": 6431,
      "EE": 6432,
      "ĠCamp": 6433,
      "ĠZeal": 6434,
      "DA": 6435,
      "ÂłÂłÂłÂł": 6436,
      "List": 6437,
      "ĠProfess": 6438,
      "Ġprison": 6439,
      "Ġà¨": 6440,
      "Ġcere": 6441,
      "Ġthick": 6442,
      "Ġconversation": 6443,
      "ĠInformation": 6444,
      "ĠProduct": 6445,
      "Ġpul": 6446,
      "flow": 6447,
      "Ġcatch": 6448,
      "Ġcart": 6449,
      "Ġ==": 6450,
      "ĠSil": 6451,
      "Ġpackage": 6452,
      "Ĥ¬": 6453,
      "Ġcalc": 6454,
      "Ġtruly": 6455,
      "Ġahead": 6456,
      "Ġinvestment": 6457,
      "ÙĤ": 6458,
      "Ġexposure": 6459,
      "Based": 6460,
      "Ġcultures": 6461,
      "Ġsecure": 6462,
      "App": 6463,
      "Ġrisks": 6464,
      "Ġmaintaining": 6465,
      "Ġpoet": 6466,
      "ĠMoreover": 6467,
      "ĠCare": 6468,
      "Ġshoot": 6469,
      "hire": 6470,
      "Ġhero": 6471,
      "ora": 6472,
      "Ġfant": 6473,
      "ferent": 6474,
      "kins": 6475,
      "Ġloved": 6476,
      "Ġfiction": 6477,
      "ĠRussia": 6478,
      "ĠBritain": 6479,
      "Ð½Ð¾Ð¹": 6480,
      "fe": 6481,
      "Ġisol": 6482,
      "Ġclaims": 6483,
      "å¸": 6484,
      "clusive": 6485,
      "Ġsusp": 6486,
      "Ġtells": 6487,
      "Ġrelation": 6488,
      "Ġhandle": 6489,
      "Ġnecessarily": 6490,
      "ðŁ": 6491,
      "Ġworldwide": 6492,
      "ifications": 6493,
      "ĠSpr": 6494,
      "ometimes": 6495,
      "ĠFurthermore": 6496,
      "Ġserves": 6497,
      "ĠTechnology": 6498,
      "Ġfourth": 6499,
      "ĠSqu": 6500,
      "Ġclosely": 6501,
      "Ġseeking": 6502,
      "oves": 6503,
      ")^": 6504,
      "Ġdriving": 6505,
      "Ġenem": 6506,
      "ocity": 6507,
      "Ġneighbor": 6508,
      "Ġstuff": 6509,
      "agram": 6510,
      "85": 6511,
      "Ġmanager": 6512,
      "ĠNov": 6513,
      "ä¿": 6514,
      "ĠZealand": 6515,
      "Ġended": 6516,
      "osh": 6517,
      "Ġfacilit": 6518,
      "ĠâĪ": 6519,
      "Ġvent": 6520,
      "ìł": 6521,
      "Ġexcellent": 6522,
      "war": 6523,
      "ĠLatin": 6524,
      "Ġseek": 6525,
      "Ġdepict": 6526,
      "Ġfinite": 6527,
      "Ġpurposes": 6528,
      "æ³": 6529,
      "inent": 6530,
      "Ġmixed": 6531,
      "icial": 6532,
      "ĠFlorida": 6533,
      "Ġsurvey": 6534,
      "Ġstream": 6535,
      "atever": 6536,
      "ĠTre": 6537,
      "Ġfruit": 6538,
      "Ġbirds": 6539,
      "Ġmanaged": 6540,
      "Ġhomes": 6541,
      "ĠBur": 6542,
      "icious": 6543,
      "cher": 6544,
      "Ġregional": 6545,
      "Ġiron": 6546,
      "Ġfindings": 6547,
      "Ġconsistent": 6548,
      "Ġcloser": 6549,
      "Man": 6550,
      "ocument": 6551,
      "Ġmedicine": 6552,
      "Ġwis": 6553,
      "ĠMult": 6554,
      "ĠNon": 6555,
      "Ġrain": 6556,
      "Ġreviews": 6557,
      "olit": 6558,
      "ë¡": 6559,
      "Ġviolence": 6560,
      "Ġprecise": 6561,
      "Ġ1994": 6562,
      "ynomial": 6563,
      "Ġunex": 6564,
      "Ġwealth": 6565,
      "Åį": 6566,
      "ĠCat": 6567,
      "mic": 6568,
      "ĠSund": 6569,
      "íķĺ": 6570,
      "ittle": 6571,
      "ĠBudd": 6572,
      "Ġvacc": 6573,
      "Ġexplanation": 6574,
      "Ġfacts": 6575,
      "Ġtrip": 6576,
      "Ġinspired": 6577,
      "yles": 6578,
      "inet": 6579,
      "ĠRichard": 6580,
      "Ġment": 6581,
      "ĠLine": 6582,
      "that": 6583,
      "Ġturns": 6584,
      "inations": 6585,
      "Ġsamples": 6586,
      "ĠMa": 6587,
      "action": 6588,
      "ĠItaly": 6589,
      "Ġmedium": 6590,
      "Ġconducted": 6591,
      "ĠChicago": 6592,
      "Ġemployees": 6593,
      "ading": 6594,
      "ĠAny": 6595,
      "Ġvan": 6596,
      "Ġdecades": 6597,
      "Ġcircle": 6598,
      "ĠEconom": 6599,
      "æł": 6600,
      "Ġfle": 6601,
      "Ġdeliver": 6602,
      "crib": 6603,
      "Ġchannel": 6604,
      "Ġsufficient": 6605,
      "file": 6606,
      "Ġreducing": 6607,
      "alls": 6608,
      "ĠÏ": 6609,
      "FL": 6610,
      "orter": 6611,
      "ĠScot": 6612,
      "ĠLos": 6613,
      "Ġdirected": 6614,
      "roid": 6615,
      "Ġpeak": 6616,
      "Ġmyself": 6617,
      "Ġwriters": 6618,
      "Ġgarden": 6619,
      "ĠVictor": 6620,
      "Ġstands": 6621,
      "Our": 6622,
      "ĠLong": 6623,
      "ĠÃł": 6624,
      "Ġnp": 6625,
      "cluding": 6626,
      "Output": 6627,
      "imensional": 6628,
      "æĶ": 6629,
      "Ġconvent": 6630,
      "IP": 6631,
      "Ġsouthern": 6632,
      "onym": 6633,
      "Ġfab": 6634,
      "Ġ1960": 6635,
      "ÐµÐ·": 6636,
      "Ġpopulations": 6637,
      "isp": 6638,
      "Ġencourage": 6639,
      "fty": 6640,
      "****": 6641,
      "Ġ##": 6642,
      "ĠParis": 6643,
      "Ġinstrument": 6644,
      "oral": 6645,
      "Ġdefault": 6646,
      "date": 6647,
      "Ġexplained": 6648,
      "Ġwaiting": 6649,
      "IA": 6650,
      "Ġscholars": 6651,
      "ĠAC": 6652,
      "ĠSimilar": 6653,
      "Ġvul": 6654,
      "Ġentry": 6655,
      "å¦": 6656,
      "Ġnoise": 6657,
      "Ġmainly": 6658,
      "Ġring": 6659,
      "ĠStar": 6660,
      "Ġentertain": 6661,
      "Ġhus": 6662,
      "gal": 6663,
      "Ġinner": 6664,
      "ĠDNA": 6665,
      "ani": 6666,
      "ĠOl": 6667,
      "à©": 6668,
      "Ġcoe": 6669,
      "Ġnorthern": 6670,
      "Ġyellow": 6671,
      "Ġpotentially": 6672,
      "Ġhoriz": 6673,
      "Ġvit": 6674,
      "Ġtow": 6675,
      "Ġcarefully": 6676,
      "ypes": 6677,
      "Ġsignificance": 6678,
      "Ġsuppl": 6679,
      "Ġdiversity": 6680,
      "ĠBrown": 6681,
      "+\\": 6682,
      "cknow": 6683,
      "Ð½Ð¾Ð³Ð¾": 6684,
      "Ġstick": 6685,
      "?âĢĿ": 6686,
      "âĢĮ": 6687,
      "Ġadvice": 6688,
      "Ġdocuments": 6689,
      "Ġpurchase": 6690,
      "Ġfell": 6691,
      "Ġlandscape": 6692,
      "ĠWomen": 6693,
      "size": 6694,
      "Ġframe": 6695,
      "orous": 6696,
      "Ġfaster": 6697,
      "osc": 6698,
      "Ġpure": 6699,
      "Ġsettings": 6700,
      "ologist": 6701,
      "eries": 6702,
      "Ġroots": 6703,
      "æŀ": 6704,
      "00000000": 6705,
      "ĠPet": 6706,
      "Ġprices": 6707,
      "ĠPers": 6708,
      "faces": 6709,
      "ĠBal": 6710,
      "tr": 6711,
      "Ġattend": 6712,
      "Ġclust": 6713,
      "SE": 6714,
      "Ġemotions": 6715,
      "Ġpictures": 6716,
      "ĠDen": 6717,
      "Ġmanufacture": 6718,
      "Ġtraffic": 6719,
      "ĠIll": 6720,
      "Ġpull": 6721,
      "unte": 6722,
      "Ġdivision": 6723,
      "ĠLo": 6724,
      "omic": 6725,
      "opping": 6726,
      "Ġleague": 6727,
      "Ġrein": 6728,
      "ĠHenry": 6729,
      "Ð°Ñİ": 6730,
      "Ġsuggested": 6731,
      "Ġbudget": 6732,
      "Ġnearby": 6733,
      "Ġmathematics": 6734,
      "Â»": 6735,
      "Ġrelax": 6736,
      "Ġcapable": 6737,
      "ĠLand": 6738,
      "uracy": 6739,
      "Ġindicate": 6740,
      "ĠAnother": 6741,
      "Ġbought": 6742,
      "Ġil": 6743,
      "ĠMill": 6744,
      "abetes": 6745,
      "atre": 6746,
      "Ġvac": 6747,
      "Ġrough": 6748,
      "ĠKar": 6749,
      "ĠCommit": 6750,
      "tra": 6751,
      "ossible": 6752,
      "Ġencoun": 6753,
      "Ġwish": 6754,
      "ĠSoviet": 6755,
      "ĠWhe": 6756,
      "Ã¡s": 6757,
      "aud": 6758,
      "Ġfix": 6759,
      "ĠFood": 6760,
      "ĠEnvironment": 6761,
      "Ġpossibly": 6762,
      "racy": 6763,
      "Ġuniform": 6764,
      "ĠMuslim": 6765,
      "Ġyouth": 6766,
      "Ġcenturies": 6767,
      "value": 6768,
      "During": 6769,
      "Des": 6770,
      "Another": 6771,
      "Ġgrass": 6772,
      "Ġtick": 6773,
      "Ġleadership": 6774,
      "çī": 6775,
      "ĠHead": 6776,
      "beta": 6777,
      "Rec": 6778,
      "ĠBet": 6779,
      "Ġintegration": 6780,
      "endment": 6781,
      "Ġmathematical": 6782,
      "ĠBank": 6783,
      "vironments": 6784,
      "ĠÄ": 6785,
      "oto": 6786,
      "Ð¾ÑĤÐ¾ÑĢ": 6787,
      "bridge": 6788,
      "Ġmovements": 6789,
      "è¦": 6790,
      "pack": 6791,
      "ĠHill": 6792,
      "Ġodd": 6793,
      "Ġentered": 6794,
      "Ġswim": 6795,
      "×Ļ": 6796,
      "Ġpool": 6797,
      "Ġvictim": 6798,
      "Ġhyp": 6799,
      "Ġuns": 6800,
      "Ġstudied": 6801,
      "ĠDoes": 6802,
      "Ġimplementation": 6803,
      "ĠìĿ": 6804,
      "Ġagreement": 6805,
      "ĠJud": 6806,
      "ĠBoard": 6807,
      "Ġsoc": 6808,
      "ĠWindows": 6809,
      "ĠCivil": 6810,
      "Ġjobs": 6811,
      "Ġderived": 6812,
      "Ġbill": 6813,
      "Ġprofessionals": 6814,
      "Ġfailed": 6815,
      "Ġtrial": 6816,
      "Ġawareness": 6817,
      "look": 6818,
      "Ġcategories": 6819,
      "Ġresolution": 6820,
      "ogether": 6821,
      "Ġarmy": 6822,
      "Ġ500": 6823,
      "Ġproport": 6824,
      "ĠDou": 6825,
      "Ġsky": 6826,
      "SP": 6827,
      "Ġstudying": 6828,
      "Ġmeasured": 6829,
      "ÐµÐ²": 6830,
      "po": 6831,
      "Ġaircraft": 6832,
      "uts": 6833,
      "Ġappreciate": 6834,
      "93": 6835,
      "Ġdynamics": 6836,
      "essel": 6837,
      "Ġinteraction": 6838,
      "Ġerrors": 6839,
      "Ġgenetic": 6840,
      "ĠPC": 6841,
      "Ġdiam": 6842,
      "MP": 6843,
      "Ġ1992": 6844,
      "amil": 6845,
      "Ġtips": 6846,
      "Trans": 6847,
      "Ġresponsibility": 6848,
      "Ġcogn": 6849,
      "ellect": 6850,
      "ĠCr": 6851,
      "ĠPract": 6852,
      "using": 6853,
      "Ġnewsp": 6854,
      "Ġpositions": 6855,
      "pet": 6856,
      "Ġacceler": 6857,
      "Ġmobile": 6858,
      "ollowing": 6859,
      "Ġdecide": 6860,
      "Ġnom": 6861,
      "ĠPub": 6862,
      "friend": 6863,
      "Ġcertainly": 6864,
      "ĠUSA": 6865,
      "ĠSeries": 6866,
      "gest": 6867,
      "Ġce": 6868,
      "hent": 6869,
      "ĠÑĩÑĤÐ¾": 6870,
      "Ġfailure": 6871,
      "herent": 6872,
      "ockey": 6873,
      "ultane": 6874,
      "Ġarms": 6875,
      "Ġmarked": 6876,
      "ï¿½ï¿½": 6877,
      "ĠÑĢÐ°Ð·": 6878,
      "Ġsupporting": 6879,
      "vec": 6880,
      "yan": 6881,
      "Ġstim": 6882,
      "being": 6883,
      "ĠMethod": 6884,
      "Ġfilter": 6885,
      "86": 6886,
      "free": 6887,
      "long": 6888,
      "ĠDu": 6889,
      "Ġdrawing": 6890,
      "Ġdesired": 6891,
      "Ġongoing": 6892,
      "ê°Ģ": 6893,
      "lambda": 6894,
      "ĠExper": 6895,
      "ìŀ": 6896,
      "igan": 6897,
      "Ġprincip": 6898,
      "Ġultimately": 6899,
      "Ġrecip": 6900,
      "ca": 6901,
      "Ġsuitable": 6902,
      "Ġlaun": 6903,
      "Ġhidden": 6904,
      "Ġasking": 6905,
      "ighter": 6906,
      "mathcal": 6907,
      "ĠBusiness": 6908,
      "Co": 6909,
      "SA": 6910,
      "ìĿĺ": 6911,
      "ĠPan": 6912,
      "Ġreform": 6913,
      "Ġsplit": 6914,
      "ifts": 6915,
      "Ð°ÑģÑĤ": 6916,
      "96": 6917,
      "Ġbeauty": 6918,
      "Ġserving": 6919,
      "rome": 6920,
      "é¢": 6921,
      "ĠWood": 6922,
      "azz": 6923,
      "Ġelev": 6924,
      "Ġregist": 6925,
      "Ġempt": 6926,
      "Ġinitially": 6927,
      "BA": 6928,
      "Ġinstructions": 6929,
      "Ġseemed": 6930,
      "Ġpowers": 6931,
      "razil": 6932,
      "ye": 6933,
      "ĠHave": 6934,
      "å·": 6935,
      "Ġbrown": 6936,
      "Ġsubs": 6937,
      "ĠBC": 6938,
      "ëĵ": 6939,
      "ivery": 6940,
      "àµį": 6941,
      "ĠVis": 6942,
      "Ġbridge": 6943,
      "itoring": 6944,
      "Ġcurve": 6945,
      "Ġ1993": 6946,
      "Ġgene": 6947,
      "Ð°Ñĩ": 6948,
      "æĹ¶": 6949,
      "Ġwear": 6950,
      "Ġinfection": 6951,
      "Ġìŀ": 6952,
      "ĠEnd": 6953,
      "cript": 6954,
      "abil": 6955,
      "ulating": 6956,
      "Ġdrop": 6957,
      "Ġcards": 6958,
      "Ġcentre": 6959,
      "pm": 6960,
      "Ġpour": 6961,
      "Ġteeth": 6962,
      "inding": 6963,
      "Ġconsumption": 6964,
      "Ġmanif": 6965,
      "dden": 6966,
      "night": 6967,
      "ĠRecords": 6968,
      "×ķ": 6969,
      "Ġ75": 6970,
      "Ġliquid": 6971,
      "Ġinternet": 6972,
      "bur": 6973,
      "Imagine": 6974,
      "ĠRh": 6975,
      "ĠCommon": 6976,
      "Ġsector": 6977,
      "Ġcomments": 6978,
      "Ġvot": 6979,
      "Ġintelligence": 6980,
      "emic": 6981,
      "Ġuniversity": 6982,
      "Ġbeliefs": 6983,
      "xiety": 6984,
      "Ġeveryday": 6985,
      "unting": 6986,
      "Ġatmosphere": 6987,
      "Ġtele": 6988,
      "ĠâĪĴ": 6989,
      "Ġdrugs": 6990,
      "Ġquarter": 6991,
      "esh": 6992,
      "Ġaid": 6993,
      "97": 6994,
      "Ġproperly": 6995,
      "obe": 6996,
      "ĠMinister": 6997,
      "Ġsubstant": 6998,
      "Ġlatter": 6999,
      "Ġthanks": 7000,
      "Ġsustainable": 7001,
      "Ġprime": 7002,
      "SC": 7003,
      "ĠReal": 7004,
      "Ġcoffee": 7005,
      "agers": 7006,
      "Ġtwist": 7007,
      "Ġexpansion": 7008,
      "ĠWhich": 7009,
      "æķ°": 7010,
      "ĠWould": 7011,
      "Ġworry": 7012,
      "ĠIII": 7013,
      "ĠInput": 7014,
      "Title": 7015,
      "æŃ": 7016,
      "antly": 7017,
      "Ġcup": 7018,
      "ĊĠĠĠĠĠĠĠĠĠĠĠĠĠĠĠ": 7019,
      "Ġtaught": 7020,
      "Ġban": 7021,
      "iral": 7022,
      "Ġrational": 7023,
      "Ġenvironments": 7024,
      "UL": 7025,
      "Ġarrange": 7026,
      "ĠSea": 7027,
      "run": 7028,
      "Ġeditor": 7029,
      "path": 7030,
      "Ġmort": 7031,
      "Ġroute": 7032,
      "Ġplastic": 7033,
      "Ġrevolution": 7034,
      "Ġseconds": 7035,
      "ĠØª": 7036,
      "æ´»": 7037,
      "Ġrestrict": 7038,
      "Ġwatching": 7039,
      "Ġrig": 7040,
      "phi": 7041,
      "Ġguidelines": 7042,
      "Ġseeing": 7043,
      "ometric": 7044,
      "ĠUnit": 7045,
      ".;": 7046,
      "ç§": 7047,
      "ensus": 7048,
      "phone": 7049,
      "ĠLove": 7050,
      "Ġinjury": 7051,
      "ĠStudies": 7052,
      "^{-": 7053,
      "ohn": 7054,
      "Ġsudden": 7055,
      "Ġfacilities": 7056,
      "Ø©": 7057,
      "ĠDespite": 7058,
      "Ġapparent": 7059,
      "Ġcomplexity": 7060,
      "zer": 7061,
      "ĠFoundation": 7062,
      "ĠMedic": 7063,
      "ĠSpecial": 7064,
      "ĠGames": 7065,
      "Ġtens": 7066,
      "race": 7067,
      "Ġtypical": 7068,
      "Since": 7069,
      "ĠFact": 7070,
      "Ġcrim": 7071,
      "Ġdress": 7072,
      "Ġunknown": 7073,
      "äºº": 7074,
      "Ġaccident": 7075,
      "stream": 7076,
      "Ġfold": 7077,
      "inem": 7078,
      "oken": 7079,
      "Don": 7080,
      "Ġarchitecture": 7081,
      "Īëĭ¤": 7082,
      "test": 7083,
      "Ġ36": 7084,
      "ĠMain": 7085,
      "Ġswitch": 7086,
      "ati": 7087,
      "Ġmit": 7088,
      "ĠSpace": 7089,
      "Ġexplicit": 7090,
      "Ġauthority": 7091,
      "ĠPacific": 7092,
      "ls": 7093,
      "ĠOffice": 7094,
      "ba": 7095,
      "Ġenab": 7096,
      "Ġinsurance": 7097,
      "Ġclinical": 7098,
      "ĠBul": 7099,
      "Ġadvert": 7100,
      "Ġdiscussions": 7101,
      "Ġresil": 7102,
      "AG": 7103,
      "Ġstret": 7104,
      "Ġdiscussed": 7105,
      "ĠJohns": 7106,
      "Ð¸ÑĩÐµÑģÐº": 7107,
      "Ġvulner": 7108,
      "Ġshift": 7109,
      "Ġcorrectly": 7110,
      "Ġ->": 7111,
      "Ġtor": 7112,
      "Ġdut": 7113,
      "ĠTimes": 7114,
      "Ġgenerations": 7115,
      "soft": 7116,
      "ĠKey": 7117,
      "Ġpil": 7118,
      "Ġexperts": 7119,
      "Ed": 7120,
      "umin": 7121,
      "ogy": 7122,
      "Ġexpressed": 7123,
      "Ġcircumst": 7124,
      "ÑĢÐ°Ð½": 7125,
      "ificial": 7126,
      "Ġarrived": 7127,
      "ĠRemember": 7128,
      "Ġdoi": 7129,
      "Ġplatforms": 7130,
      "infty": 7131,
      "Ġframework": 7132,
      "Ġassume": 7133,
      "real": 7134,
      "gs": 7135,
      "Ġinteger": 7136,
      "ĠRail": 7137,
      "Other": 7138,
      "Ġattacks": 7139,
      "rastructure": 7140,
      "ĠMartin": 7141,
      "umer": 7142,
      "active": 7143,
      "cription": 7144,
      "zy": 7145,
      "Ġtraditions": 7146,
      "Ġoxygen": 7147,
      "Ġmanner": 7148,
      "ĠAnalysis": 7149,
      "ĠExt": 7150,
      "Ġcollaboration": 7151,
      "Ġagent": 7152,
      "SI": 7153,
      "ĠGeorg": 7154,
      "ĠNorthern": 7155,
      "Ġestimate": 7156,
      "Ġcorner": 7157,
      "attering": 7158,
      ">>": 7159,
      "isco": 7160,
      "ĠÐ¿ÐµÑĢ": 7161,
      "Or": 7162,
      "Ġkm": 7163,
      "Ġtu": 7164,
      "Ġdepends": 7165,
      "pat": 7166,
      "Ġsport": 7167,
      "Ġlocations": 7168,
      "Ġadministr": 7169,
      "Ġmac": 7170,
      "Ġends": 7171,
      "Ġmagnetic": 7172,
      "ĠSystems": 7173,
      "Ġpolitics": 7174,
      "Ġmountain": 7175,
      "Go": 7176,
      "lete": 7177,
      "å½": 7178,
      "Ġwinning": 7179,
      "asts": 7180,
      "Ġentirely": 7181,
      "const": 7182,
      "Ġunexpected": 7183,
      "trans": 7184,
      "Ġacts": 7185,
      "color": 7186,
      "itud": 7187,
      "Ġmarketing": 7188,
      "Ġintegral": 7189,
      "ĠDig": 7190,
      "ĠĠĠĠĠĠĠĠĠĠĠĠĠĠĠĠĠĠĠĠĠĠĠĠĠĠĠĠĠĠĠĠ": 7191,
      "Ġlinked": 7192,
      "ĠOx": 7193,
      "Ġdefinite": 7194,
      "making": 7195,
      "Ġreduction": 7196,
      "Ġillness": 7197,
      "Ġlogic": 7198,
      "Ġparagraph": 7199,
      "ifferent": 7200,
      "ograp": 7201,
      "OK": 7202,
      "Ġourselves": 7203,
      "Ġpromoting": 7204,
      "isters": 7205,
      "Ġelected": 7206,
      "tenance": 7207,
      "Ġspin": 7208,
      "Ġflight": 7209,
      "Ġdescribes": 7210,
      "ĠEnergy": 7211,
      "Ġtreated": 7212,
      "Ġfav": 7213,
      "Ġreturning": 7214,
      "ĠĠĠĠĠĠĠĠĠĠĠ": 7215,
      "Ġpartner": 7216,
      "Ġacknow": 7217,
      "Ġoccurred": 7218,
      "92": 7219,
      "ili": 7220,
      "Ġperman": 7221,
      "ĠTri": 7222,
      "Ġphotos": 7223,
      "94": 7224,
      "ÑĥÑĩ": 7225,
      "ë¡ľ": 7226,
      "ĠServices": 7227,
      "max": 7228,
      "Ġfrag": 7229,
      "Ġsubjects": 7230,
      "ao": 7231,
      "Ġperforming": 7232,
      "Ġedition": 7233,
      "84": 7234,
      "Ġ150": 7235,
      "Ġpregn": 7236,
      "Ġmal": 7237,
      "Ġpolynomial": 7238,
      "Ġvirtual": 7239,
      "ÑıÑĤ": 7240,
      "Ġfunctional": 7241,
      "istical": 7242,
      "python": 7243,
      "ĠCast": 7244,
      "partial": 7245,
      "Ġ1991": 7246,
      "ĠYoung": 7247,
      "Ġdynamic": 7248,
      "ĠCommittee": 7249,
      "Ġalongside": 7250,
      "Ġresidents": 7251,
      "Ġradiation": 7252,
      "Ġchief": 7253,
      "ĠFace": 7254,
      "Ġtemperatures": 7255,
      "ĠMu": 7256,
      "Ġrecognized": 7257,
      "ĠControl": 7258,
      "Ġupdate": 7259,
      "Ġrecommended": 7260,
      "orrect": 7261,
      "Ġwaves": 7262,
      "idad": 7263,
      "Ġinfect": 7264,
      "Ġindeed": 7265,
      "Ġdrawn": 7266,
      "Ġvehicles": 7267,
      "Mod": 7268,
      "Ġ74": 7269,
      "ĠIntroduction": 7270,
      "stood": 7271,
      "Ġfeatured": 7272,
      "cho": 7273,
      "hus": 7274,
      "Ġgoods": 7275,
      "Student": 7276,
      "Ġsoul": 7277,
      "ĠÑģÐ²": 7278,
      "Ġ2023": 7279,
      "Ð¾Ñĩ": 7280,
      "Ġalcohol": 7281,
      "''": 7282,
      "Ġenable": 7283,
      "wing": 7284,
      "87": 7285,
      "ali": 7286,
      "Ġdecrease": 7287,
      "---": 7288,
      "wa": 7289,
      "ĠZh": 7290,
      "ĠWhere": 7291,
      "Ġstorm": 7292,
      "æĪĳ": 7293,
      "TIONS": 7294,
      "ĠPass": 7295,
      "ìķ": 7296,
      "Ġlimits": 7297,
      "Ġmanip": 7298,
      "then": 7299,
      "Ġdesigns": 7300,
      "Ġsuc": 7301,
      "NO": 7302,
      "Ġrom": 7303,
      "Ġbranch": 7304,
      "itutional": 7305,
      "space": 7306,
      "Ġfeat": 7307,
      "Ġfluid": 7308,
      "ĠDev": 7309,
      "Ġprocedure": 7310,
      "Ġconstit": 7311,
      "ĠMot": 7312,
      "itis": 7313,
      "Ġ()": 7314,
      "å¦Ĥ": 7315,
      "Ġclassical": 7316,
      "ĠLibrary": 7317,
      "Ġadventure": 7318,
      "Ġfeedback": 7319,
      "heast": 7320,
      "ĠSuch": 7321,
      "Ġ300": 7322,
      "ante": 7323,
      "lers": 7324,
      "Ġlots": 7325,
      "ji": 7326,
      "asty": 7327,
      "azon": 7328,
      "ja": 7329,
      "Ġaccepted": 7330,
      "erman": 7331,
      "Ġtheorem": 7332,
      "Ġtransformation": 7333,
      "ĊĊĊ": 7334,
      "Ġgained": 7335,
      "2000": 7336,
      "Ġaccompl": 7337,
      "Ġvibr": 7338,
      "ĠAdv": 7339,
      "Ġopposite": 7340,
      "|-": 7341,
      "izer": 7342,
      "Ġpropos": 7343,
      "Ġmuseum": 7344,
      "Ġvide": 7345,
      "ĠLearning": 7346,
      "ĠVirginia": 7347,
      "dule": 7348,
      "Ġconfidence": 7349,
      "})": 7350,
      "claim": 7351,
      "ĠSecret": 7352,
      "éĻ": 7353,
      "Ġintroduction": 7354,
      "Ġconsciousness": 7355,
      "Ġoptimal": 7356,
      "Ġcm": 7357,
      "Ġped": 7358,
      "Ġchair": 7359,
      "More": 7360,
      "ĠForce": 7361,
      "Ġwalls": 7362,
      "Ġfashion": 7363,
      "$$\\": 7364,
      "Ġassistance": 7365,
      "Ġsimultane": 7366,
      "Ġbacteria": 7367,
      "}}\\": 7368,
      "GB": 7369,
      "Ãª": 7370,
      "Ġhousehold": 7371,
      "era": 7372,
      "ologists": 7373,
      "According": 7374,
      "sell": 7375,
      "Ġdistingu": 7376,
      "pling": 7377,
      "Ġhelpful": 7378,
      "Ġgrew": 7379,
      "Ġran": 7380,
      "Ġmeat": 7381,
      "cers": 7382,
      "Ġgrade": 7383,
      "Ġstone": 7384,
      "Ġbasketball": 7385,
      "Ġnine": 7386,
      "Ġgal": 7387,
      "ĠHaw": 7388,
      "Ear": 7389,
      "Ġgreatest": 7390,
      "Ġshop": 7391,
      "throp": 7392,
      "Ġ~": 7393,
      "Ġcong": 7394,
      "cm": 7395,
      "Ġhusband": 7396,
      "Ġrenew": 7397,
      "Ġmilk": 7398,
      "Ġsweet": 7399,
      "ĠLog": 7400,
      "Ø§ÛĮ": 7401,
      "ĠFootball": 7402,
      "rovers": 7403,
      "ĠSC": 7404,
      "cluded": 7405,
      "Ġinsight": 7406,
      "Ġelectronic": 7407,
      "Ġnutrit": 7408,
      "Ġbath": 7409,
      "Ġlargely": 7410,
      "Ġexamine": 7411,
      "kl": 7412,
      "Ġpod": 7413,
      "MA": 7414,
      "Ġadministration": 7415,
      "Ġhorse": 7416,
      "Ġwouldn": 7417,
      "ĨĴ": 7418,
      "ĠIns": 7419,
      "ĠAngeles": 7420,
      "Ġthin": 7421,
      "weight": 7422,
      "Ġspecified": 7423,
      "lines": 7424,
      "2010": 7425,
      "Ġopinion": 7426,
      "eless": 7427,
      "itchen": 7428,
      "dimensional": 7429,
      "Ġgone": 7430,
      "Ġclients": 7431,
      "ĠImagine": 7432,
      "Ġtheme": 7433,
      "Ġcapture": 7434,
      "Ġlose": 7435,
      "Ġmuscle": 7436,
      "ĠKeep": 7437,
      "Note": 7438,
      "ĠChildren": 7439,
      "Ġchampions": 7440,
      "Ġpassion": 7441,
      "ĠJim": 7442,
      "Ġcomputers": 7443,
      "Ġagreed": 7444,
      "ĠÑģÐ»": 7445,
      "ishop": 7446,
      "Ġherself": 7447,
      "ĠÐºÐ¾ÑĤÐ¾ÑĢ": 7448,
      "Ġremark": 7449,
      "eding": 7450,
      "Ġvelocity": 7451,
      "ÐºÐ¸": 7452,
      "ito": 7453,
      "Ġfan": 7454,
      "Ġvote": 7455,
      "Ġbroadcast": 7456,
      "Ġtransportation": 7457,
      "ĠChristmas": 7458,
      "Ġresist": 7459,
      "ĠModel": 7460,
      "adr": 7461,
      "Ġinnovative": 7462,
      "Ġinn": 7463,
      "ui": 7464,
      "Ġimper": 7465,
      "Ġrecognize": 7466,
      "Ġessay": 7467,
      "Ġproceed": 7468,
      "Ġreject": 7469,
      "ĠÑı": 7470,
      "Ġcompos": 7471,
      "ĠRef": 7472,
      "TV": 7473,
      "ĠJoseph": 7474,
      "Ġhouses": 7475,
      "Ġborder": 7476,
      "ĠBlue": 7477,
      "Ġcollected": 7478,
      "Ġfoundation": 7479,
      "Ġguarant": 7480,
      "ĠValley": 7481,
      "Ġindu": 7482,
      "aturday": 7483,
      "Ġfinish": 7484,
      "LA": 7485,
      "Ġalgorithms": 7486,
      "dem": 7487,
      "ĠLim": 7488,
      "Ġarts": 7489,
      "Ġcircuit": 7490,
      "ĠInteg": 7491,
      "èĩ": 7492,
      "andon": 7493,
      "Ġthorough": 7494,
      "Ġlayers": 7495,
      "ĠLi": 7496,
      "Ġconcentration": 7497,
      "sen": 7498,
      "Ġcultiv": 7499,
      "Ġrevealed": 7500,
      "Ġserver": 7501,
      "Ġblocks": 7502,
      "Ġuncertain": 7503,
      "è¦ģ": 7504,
      "Ġcovers": 7505,
      "ĠÐºÐ°Ðº": 7506,
      "Ġwestern": 7507,
      "IR": 7508,
      "Ġingredients": 7509,
      "icing": 7510,
      "Ġpron": 7511,
      "ĠEastern": 7512,
      "Ġdepart": 7513,
      "pers": 7514,
      "ĠBack": 7515,
      "Ġdangerous": 7516,
      "Ġtiny": 7517,
      "Ġà°": 7518,
      "Ġmessages": 7519,
      "Ġbroken": 7520,
      "rox": 7521,
      "PR": 7522,
      "Ġtutorial": 7523,
      "Ġà®": 7524,
      "Ġversions": 7525,
      "Ġconstraint": 7526,
      "Ġnone": 7527,
      "9999": 7528,
      "Ġowner": 7529,
      "Ġtall": 7530,
      "Ġpray": 7531,
      "Ġprinciple": 7532,
      "mes": 7533,
      "ĠSpain": 7534,
      "car": 7535,
      "ĠSouthern": 7536,
      "Ge": 7537,
      "Ġseat": 7538,
      "Ġintroduce": 7539,
      "Ġreson": 7540,
      "craft": 7541,
      "Ġgall": 7542,
      "uan": 7543,
      "Ġwire": 7544,
      "Ġportion": 7545,
      "appy": 7546,
      "ĠWild": 7547,
      "owns": 7548,
      "onent": 7549,
      "etime": 7550,
      "Ġcris": 7551,
      "Ġsymmet": 7552,
      "Ġmarriage": 7553,
      "ĠWrit": 7554,
      "Â·Â·Â·Â·": 7555,
      "Ġorganic": 7556,
      "ĠThink": 7557,
      "Ø§Ø±": 7558,
      "ĠLib": 7559,
      "Ð°Ð¹": 7560,
      "Ġ64": 7561,
      "Ġlisten": 7562,
      "Ġconservation": 7563,
      "ĠPortug": 7564,
      "ĠÐ¿ÑĢÐ¾": 7565,
      "Ġarguments": 7566,
      "ĠBrazil": 7567,
      "linear": 7568,
      "uity": 7569,
      "2006": 7570,
      "Ġvessel": 7571,
      "iner": 7572,
      "CD": 7573,
      "Ġwitness": 7574,
      "ĠÂ»": 7575,
      "Ġstable": 7576,
      "Ġfans": 7577,
      "#####": 7578,
      "Ġfighting": 7579,
      "gent": 7580,
      "ourage": 7581,
      "Ġlesson": 7582,
      "çİ": 7583,
      "rieved": 7584,
      "ults": 7585,
      "ĠRegulations": 7586,
      "mond": 7587,
      "Ġunderlying": 7588,
      "Ġcooper": 7589,
      "Ġamounts": 7590,
      "Ġunlike": 7591,
      "Ð½ÑĭÐ¹": 7592,
      "rive": 7593,
      "Ġaccuracy": 7594,
      "Part": 7595,
      "hat": 7596,
      "ceived": 7597,
      "Ġcontrolled": 7598,
      "yer": 7599,
      "elled": 7600,
      "Ġraise": 7601,
      "Ġsister": 7602,
      "à¦¾": 7603,
      "Ġdiscipl": 7604,
      "ĠIrish": 7605,
      "Ġtissue": 7606,
      "unc": 7607,
      "ĠPoint": 7608,
      "exp": 7609,
      "Ġsalt": 7610,
      "Ġachieved": 7611,
      "ilon": 7612,
      "aren": 7613,
      "Ġshel": 7614,
      "iler": 7615,
      "Ġnarrow": 7616,
      "Ġappointed": 7617,
      "83": 7618,
      "ĠMedical": 7619,
      "ĠCur": 7620,
      "Ġlaunch": 7621,
      "XX": 7622,
      "hedule": 7623,
      "Ġperiods": 7624,
      "ega": 7625,
      "Ġdiscovery": 7626,
      "ĠColor": 7627,
      "ĠHor": 7628,
      "Ġordered": 7629,
      "Ġsummary": 7630,
      "lock": 7631,
      "è´": 7632,
      "Ġcommitted": 7633,
      "ĠNight": 7634,
      "........": 7635,
      "ĠBra": 7636,
      "ĠBow": 7637,
      "xture": 7638,
      "Ġcreates": 7639,
      "Ġsuccessfully": 7640,
      "ĠRom": 7641,
      "Ġvolt": 7642,
      "oir": 7643,
      "var": 7644,
      "ĠCard": 7645,
      "ĠPsych": 7646,
      "81": 7647,
      "Ġintellect": 7648,
      "ĠConference": 7649,
      "Par": 7650,
      "ĠOrig": 7651,
      "erves": 7652,
      "Ġempty": 7653,
      "ello": 7654,
      "iana": 7655,
      "ref": 7656,
      "Ġnegot": 7657,
      "ĠChem": 7658,
      "Ġinformed": 7659,
      "Ġclient": 7660,
      "DE": 7661,
      "ĠMen": 7662,
      "ĠCross": 7663,
      "âĢ¦âĢ¦": 7664,
      "ĠNetwork": 7665,
      "Ġguidance": 7666,
      "Per": 7667,
      "host": 7668,
      "eps": 7669,
      "Ġ!": 7670,
      "uses": 7671,
      "Ġaddressing": 7672,
      "Ġinfinite": 7673,
      "umes": 7674,
      "ancer": 7675,
      "Ġdiscrim": 7676,
      "Ġtranslate": 7677,
      "May": 7678,
      "matrix": 7679,
      "Ġofficials": 7680,
      "Ġunion": 7681,
      "this": 7682,
      "Ġbot": 7683,
      "Ġtexts": 7684,
      "ĠEnter": 7685,
      "Ġsan": 7686,
      "Ġinvent": 7687,
      "Ð¾Ð»ÑĮÐ·": 7688,
      "Ġflowers": 7689,
      "aked": 7690,
      "Ġmoments": 7691,
      "Ġeggs": 7692,
      "ds": 7693,
      "Ġcam": 7694,
      "Ġobst": 7695,
      "Ð¿ÑĢ": 7696,
      "ĠContin": 7697,
      "ÑĥÐ´": 7698,
      "Ġknowing": 7699,
      "Ġinhab": 7700,
      "Ġlibr": 7701,
      "][": 7702,
      "Ġcooking": 7703,
      "Ġmoral": 7704,
      "Ġdisorder": 7705,
      "ĠSunday": 7706,
      "cosystem": 7707,
      "ĠFort": 7708,
      "Ġobservations": 7709,
      "Ġbuying": 7710,
      "lamm": 7711,
      "Ġcash": 7712,
      "Ġarrest": 7713,
      "lishing": 7714,
      "Ġassessment": 7715,
      "ĠSir": 7716,
      "Ġtox": 7717,
      "ĠÂ£": 7718,
      "Ġinnovation": 7719,
      "Ð¸ÑĨ": 7720,
      "ë¥": 7721,
      "bles": 7722,
      "world": 7723,
      "Ġboundaries": 7724,
      "Pr": 7725,
      "Ġmoves": 7726,
      "ĠHot": 7727,
      "}=": 7728,
      "Ġflood": 7729,
      "Ġdatas": 7730,
      "Ġafford": 7731,
      "Ġampl": 7732,
      "Ġsole": 7733,
      "Ġanxiety": 7734,
      "Ġven": 7735,
      "cules": 7736,
      "Ġentre": 7737,
      "ĠJac": 7738,
      "ÐµÑĩ": 7739,
      "ĠWall": 7740,
      "Ġshad": 7741,
      "ĠLee": 7742,
      "Ġusage": 7743,
      "Ġalbums": 7744,
      "Ġcomposition": 7745,
      "Ġmassive": 7746,
      "Ġshut": 7747,
      "ĠSwed": 7748,
      "Ġcircumstances": 7749,
      "Ġadm": 7750,
      "never": 7751,
      "Ġcareful": 7752,
      "Ġiter": 7753,
      "Ġrepeated": 7754,
      "ĠPop": 7755,
      "Ġol": 7756,
      "onday": 7757,
      "Ġearn": 7758,
      "Ġspeaking": 7759,
      "Ġdatabase": 7760,
      "FT": 7761,
      "itative": 7762,
      "ĠArts": 7763,
      "ĠÐ±Ñĭ": 7764,
      "cons": 7765,
      "Ġcompr": 7766,
      "Ġfellow": 7767,
      "Ġadopted": 7768,
      "Ġelectrical": 7769,
      "Ġplate": 7770,
      "Ġunless": 7771,
      "Tr": 7772,
      "Ġmatters": 7773,
      "ker": 7774,
      "oston": 7775,
      "Ġtur": 7776,
      "ĠLast": 7777,
      "kes": 7778,
      "Ġkil": 7779,
      "ĠTO": 7780,
      "Ġsubt": 7781,
      "Ġorganized": 7782,
      "Ġbag": 7783,
      "Ġfert": 7784,
      "Ġcab": 7785,
      "tex": 7786,
      "Ġremote": 7787,
      "Ġadj": 7788,
      "ikip": 7789,
      "Ġtaste": 7790,
      "ÑħÐ¾Ð´": 7791,
      "weet": 7792,
      "Ð½ÑĭÐ¼": 7793,
      "Ġperm": 7794,
      "ÐµÑģÑĤ": 7795,
      "Ġsoldiers": 7796,
      "Ġstrict": 7797,
      "ØŃ": 7798,
      "Ġabilities": 7799,
      "Ġforget": 7800,
      "spe": 7801,
      "ĠSaf": 7802,
      "ĠOnly": 7803,
      "ĠFred": 7804,
      "utation": 7805,
      "ĠÐ¸Ð½": 7806,
      "Ġtargeted": 7807,
      "Ġrecognition": 7808,
      "aria": 7809,
      "Ġconvey": 7810,
      "Ġfraction": 7811,
      "Ġ33": 7812,
      "Ġ1989": 7813,
      "91": 7814,
      "Ġorient": 7815,
      "ĠApplic": 7816,
      "ĠMah": 7817,
      "Welcome": 7818,
      "km": 7819,
      "stone": 7820,
      "æĮ": 7821,
      "Ġwaters": 7822,
      "Ġsession": 7823,
      "Have": 7824,
      "Ġcrime": 7825,
      "Ġthrow": 7826,
      "Ä±n": 7827,
      "Ġaccounts": 7828,
      "ĠÐ¿Ð¾": 7829,
      "aturally": 7830,
      "Ġdomin": 7831,
      "Ġboundary": 7832,
      "roduct": 7833,
      "ĠTem": 7834,
      "Ġmir": 7835,
      "ĠMur": 7836,
      "Ġperspectives": 7837,
      "Ġexpensive": 7838,
      "ĠLight": 7839,
      "ilation": 7840,
      "Ġconven": 7841,
      "Ġresponses": 7842,
      "aks": 7843,
      "arios": 7844,
      "Ġdim": 7845,
      "Ġneighborhood": 7846,
      "plete": 7847,
      "Ġantib": 7848,
      "ayer": 7849,
      "Act": 7850,
      "ĠFire": 7851,
      "Ġwhatever": 7852,
      "Ġhearing": 7853,
      "ĠHy": 7854,
      "Ġune": 7855,
      "Ġlaunched": 7856,
      "erving": 7857,
      "Ġrealized": 7858,
      "Ġsched": 7859,
      "Ġactor": 7860,
      "rations": 7861,
      "roke": 7862,
      "Ġcoal": 7863,
      "Ġrect": 7864,
      "Ġloop": 7865,
      "Ġconfir": 7866,
      "Ġkinds": 7867,
      "Ġguard": 7868,
      "ucky": 7869,
      "ĠThanks": 7870,
      "Ne": 7871,
      "Ġdraft": 7872,
      "Ġprofessor": 7873,
      "Ġcalculated": 7874,
      "Ġbrings": 7875,
      "ĠÐ¿Ð¾Ð´": 7876,
      "Ġmachines": 7877,
      "ØĮ": 7878,
      "Ġnations": 7879,
      "heim": 7880,
      "Ġburn": 7881,
      "arn": 7882,
      "Ġthread": 7883,
      "Ġembed": 7884,
      "ë¦": 7885,
      "iano": 7886,
      ".'": 7887,
      "ĠIdent": 7888,
      "Premise": 7889,
      "ĠColumbia": 7890,
      "ĠFamily": 7891,
      "Ġsupposed": 7892,
      "Ġdecor": 7893,
      "ĠFinally": 7894,
      "iro": 7895,
      "Ġconstructed": 7896,
      "ulty": 7897,
      "Ġsupports": 7898,
      "Ġdelivery": 7899,
      "Ġathlet": 7900,
      "Ġinfrastructure": 7901,
      "Ġskill": 7902,
      "ĠFederal": 7903,
      "Ġdesire": 7904,
      "Ġemployed": 7905,
      "ĠÐ¡": 7906,
      "2012": 7907,
      "Ġbatt": 7908,
      "Ġdepartment": 7909,
      "========": 7910,
      "çŃ": 7911,
      "ĠLook": 7912,
      "irty": 7913,
      "Ġstored": 7914,
      "Ġastron": 7915,
      "ĠĠĊ": 7916,
      "ï¼ī": 7917,
      "82": 7918,
      "Ġsenior": 7919,
      "rary": 7920,
      "ĠAsian": 7921,
      "Ġnutri": 7922,
      "aph": 7923,
      "++++": 7924,
      "Ġrobot": 7925,
      "Ġexperiments": 7926,
      "Ġrapidly": 7927,
      "Ġyounger": 7928,
      "Ġfunds": 7929,
      "Ġmarkets": 7930,
      "ĠViet": 7931,
      "Ġtum": 7932,
      "2013": 7933,
      "imation": 7934,
      "Input": 7935,
      "ĠDirector": 7936,
      "Ġimproving": 7937,
      "ĠÑĤÐ°Ðº": 7938,
      "Ġregularly": 7939,
      "ĠGlobal": 7940,
      "Ġmyst": 7941,
      "Of": 7942,
      "ĠGard": 7943,
      "Ġcorrel": 7944,
      "ĠWay": 7945,
      "Ġbeach": 7946,
      "Ġstability": 7947,
      "ĠStudents": 7948,
      "ê³ł": 7949,
      "ê²": 7950,
      "ĠUt": 7951,
      "aya": 7952,
      "Ġpassing": 7953,
      "ikipedia": 7954,
      "ĠBefore": 7955,
      "Ġfeels": 7956,
      "ĠCreat": 7957,
      "Ġhonor": 7958,
      "Ġstruggle": 7959,
      "iox": 7960,
      "alities": 7961,
      "à¤¿": 7962,
      "Ġnu": 7963,
      "ycl": 7964,
      "Ġvictory": 7965,
      "Ġoperator": 7966,
      "English": 7967,
      "Ġboys": 7968,
      "ĠAND": 7969,
      "ĠFour": 7970,
      "Ġmaps": 7971,
      "Ġauthent": 7972,
      "Ġturning": 7973,
      "Ġowned": 7974,
      "Ġphoto": 7975,
      "stra": 7976,
      "Ġconvert": 7977,
      "Ġcontained": 7978,
      "Ġna": 7979,
      "Ġsnippet": 7980,
      "ĠOffic": 7981,
      "Ġacting": 7982,
      "ifier": 7983,
      "Ġelectricity": 7984,
      "ĠBible": 7985,
      "ador": 7986,
      "ima": 7987,
      "ĠIndust": 7988,
      "spec": 7989,
      "enny": 7990,
      "uma": 7991,
      "Ġimpossible": 7992,
      "Ġ72": 7993,
      "Sub": 7994,
      "Ġsinger": 7995,
      "riers": 7996,
      "Ġfinds": 7997,
      "àŃ": 7998,
      "essions": 7999,
      "ENT": 8000,
      "ylvan": 8001,
      "Ġpursu": 8002,
      "ĠOlympics": 8003,
      "ĠEth": 8004,
      "ĠĠĠĠĠĠ": 8005,
      "Ġvisible": 8006,
      "æ´»åĬ¨": 8007,
      "ĠChapter": 8008,
      "Ġsteel": 8009,
      "Ġprepare": 8010,
      "mo": 8011,
      "Ġdisorders": 8012,
      "Ú¯": 8013,
      "å¯¹": 8014,
      "ĠGame": 8015,
      "çĲ": 8016,
      "ĠTheory": 8017,
      "ï¼Ī": 8018,
      "Ġinspiration": 8019,
      "Ġpainting": 8020,
      "ĠJeff": 8021,
      "âĢĺ": 8022,
      "rame": 8023,
      "Ġsed": 8024,
      "Ġphilosophy": 8025,
      "Ġbutton": 8026,
      "Ġstatements": 8027,
      "Ġindicates": 8028,
      "ido": 8029,
      "Ġvolunte": 8030,
      "Gener": 8031,
      "Ġdifferential": 8032,
      "ĠCommunity": 8033,
      "Ġcutting": 8034,
      "ĠJohnson": 8035,
      "Ġsucceed": 8036,
      "ĠRevolution": 8037,
      "wan": 8038,
      "Ġinstruction": 8039,
      "Problem": 8040,
      "Before": 8041,
      "Ġinequ": 8042,
      "Ġengagement": 8043,
      "Over": 8044,
      "estyle": 8045,
      "Ġdriver": 8046,
      "ching": 8047,
      "Ġteen": 8048,
      "inition": 8049,
      "hered": 8050,
      "Ġintric": 8051,
      "Ø³Øª": 8052,
      "ĠLew": 8053,
      "Ġreactions": 8054,
      "ĠThree": 8055,
      "Ġshell": 8056,
      "ĸ´": 8057,
      "Ġstatistics": 8058,
      "Ġoccasion": 8059,
      "Ġsections": 8060,
      "idential": 8061,
      "Ġcourses": 8062,
      "Ġìķ": 8063,
      "íķľ": 8064,
      "ĠCarolina": 8065,
      "Ġ1950": 8066,
      "Ġreferences": 8067,
      "Ġvon": 8068,
      "EO": 8069,
      "ushed": 8070,
      "ĠRights": 8071,
      "PC": 8072,
      "Ġfly": 8073,
      "();": 8074,
      "Ġsubsequent": 8075,
      "Ġcrisis": 8076,
      "akistan": 8077,
      "æį": 8078,
      "ĠSand": 8079,
      "sk": 8080,
      "Ġattempts": 8081,
      "Ġtap": 8082,
      "Ġflag": 8083,
      "Ġconference": 8084,
      "asters": 8085,
      "Ġsilver": 8086,
      "Ġmonitoring": 8087,
      "Ġdiabetes": 8088,
      "div": 8089,
      "gers": 8090,
      "ĠMean": 8091,
      "Ġren": 8092,
      "ì§Ģ": 8093,
      "ĠLab": 8094,
      "Ġsam": 8095,
      "Ġparticle": 8096,
      "Ġminute": 8097,
      "Ġaimed": 8098,
      "RI": 8099,
      "Ġsurgery": 8100,
      "Ġfunding": 8101,
      "ĠColl": 8102,
      "ounce": 8103,
      "Ġprocedures": 8104,
      "Ġbaseball": 8105,
      "ĠFriday": 8106,
      "Ġfacing": 8107,
      "ĠBu": 8108,
      "adium": 8109,
      "pass": 8110,
      "Ġwhereas": 8111,
      "Ġstronger": 8112,
      "Ġsecondary": 8113,
      "Ġhaven": 8114,
      "2005": 8115,
      "ĠPot": 8116,
      "Ġcombat": 8117,
      "Ġmagazine": 8118,
      "Ġ1988": 8119,
      "ested": 8120,
      "scale": 8121,
      "Ġmeaningful": 8122,
      "ÐµÐºÑĤ": 8123,
      "plex": 8124,
      "Ġcrew": 8125,
      "arks": 8126,
      "Ġmaintenance": 8127,
      "Ġ\"\"": 8128,
      "eting": 8129,
      "isk": 8130,
      "Ġtroops": 8131,
      "Ġ1986": 8132,
      "Your": 8133,
      "III": 8134,
      "^{\\": 8135,
      "omer": 8136,
      "Although": 8137,
      "Rem": 8138,
      "Ġpra": 8139,
      "awa": 8140,
      "Ġdeeply": 8141,
      "ĠField": 8142,
      "Ã¼r": 8143,
      "Ġplanned": 8144,
      "ĠStr": 8145,
      "Ġsymbols": 8146,
      "ups": 8147,
      "ĠCro": 8148,
      "Many": 8149,
      "ĠType": 8150,
      "ĠModern": 8151,
      "iot": 8152,
      "iche": 8153,
      "Ġunderstood": 8154,
      "Ġcontrovers": 8155,
      "Reg": 8156,
      "Ġforg": 8157,
      "ä¾": 8158,
      "agues": 8159,
      "Ġagency": 8160,
      "unning": 8161,
      "ĠEngineering": 8162,
      "Ġdelve": 8163,
      "ĠJews": 8164,
      "vin": 8165,
      "onia": 8166,
      "organ": 8167,
      "ishes": 8168,
      "ĠWed": 8169,
      "Ġmanaging": 8170,
      "ournament": 8171,
      "Ġextent": 8172,
      "ounded": 8173,
      "Ġethical": 8174,
      "yal": 8175,
      "Ġinstalled": 8176,
      "fol": 8177,
      "ibl": 8178,
      "Ġwidth": 8179,
      "ĠSaturday": 8180,
      "Ġcomposed": 8181,
      "ĠSciences": 8182,
      "outs": 8183,
      "Ð°Ð³": 8184,
      "Ġrub": 8185,
      "äºİ": 8186,
      "Ġvideos": 8187,
      "lets": 8188,
      "Ġalle": 8189,
      "ependent": 8190,
      "Ġstyles": 8191,
      "eli": 8192,
      "function": 8193,
      "Ġmur": 8194,
      "Ġeld": 8195,
      "ĠBased": 8196,
      "Ġdomestic": 8197,
      "Last": 8198,
      "ĠÐŀ": 8199,
      "Ġoutcome": 8200,
      "ĠMach": 8201,
      "Ġusual": 8202,
      "annels": 8203,
      "Ġancest": 8204,
      "ĠCalcul": 8205,
      "Ġunable": 8206,
      "Ġlie": 8207,
      "VD": 8208,
      "orry": 8209,
      "iva": 8210,
      "ulum": 8211,
      "ĠIran": 8212,
      "requ": 8213,
      "Ġimmune": 8214,
      "Ġnotable": 8215,
      "ä½¿": 8216,
      "ÑĢÐ°": 8217,
      "anger": 8218,
      "Ġconcerned": 8219,
      "2007": 8220,
      "Ġbes": 8221,
      "ĠAlice": 8222,
      "Ġdimensions": 8223,
      "riz": 8224,
      "Ġclassroom": 8225,
      "}_": 8226,
      "Ġcaught": 8227,
      "Fil": 8228,
      "Ġsignals": 8229,
      "vol": 8230,
      "Ġtight": 8231,
      "Ġdepression": 8232,
      "??": 8233,
      "ê¸": 8234,
      "Ġecosystem": 8235,
      "Ġpercentage": 8236,
      "Ġdates": 8237,
      "onents": 8238,
      "ĠSimilarly": 8239,
      "Ġpapers": 8240,
      "Ð¸ÑģÑĤ": 8241,
      "ĠFig": 8242,
      "Ġcontributions": 8243,
      "ĠSecurity": 8244,
      "Ġofficer": 8245,
      "Ġelectro": 8246,
      "han": 8247,
      "Ġpersist": 8248,
      "ĠAbout": 8249,
      "ĠSign": 8250,
      "Ġsale": 8251,
      "Ġrural": 8252,
      "Ġabuse": 8253,
      "uf": 8254,
      "2009": 8255,
      "Bob": 8256,
      "CT": 8257,
      "inals": 8258,
      "ĠÅ": 8259,
      "Ġofficers": 8260,
      "Ø¬": 8261,
      "aka": 8262,
      "ĠTeam": 8263,
      "Ġparticipate": 8264,
      "Ġcomfortable": 8265,
      "ĠÂ·": 8266,
      "ommod": 8267,
      "Ġdistributed": 8268,
      "ĠOpt": 8269,
      "Ġassigned": 8270,
      "umns": 8271,
      "Ġsensitive": 8272,
      "ĠLittle": 8273,
      "Ġspending": 8274,
      "Ġ61": 8275,
      "Ġinsect": 8276,
      "ĠAR": 8277,
      "Ġmechanism": 8278,
      "raq": 8279,
      "Ġcryst": 8280,
      "Ġproducing": 8281,
      "ĠMedia": 8282,
      "Just": 8283,
      "Ġbone": 8284,
      "________________": 8285,
      "ĠSup": 8286,
      "Ġstores": 8287,
      "Ġbreast": 8288,
      "Ġobjective": 8289,
      "ĠLabor": 8290,
      "Ġintent": 8291,
      "ĠWal": 8292,
      "æĬ": 8293,
      "Er": 8294,
      "Ġcomparison": 8295,
      "Ġincredible": 8296,
      "ìĿĢ": 8297,
      "uality": 8298,
      "Ġexpressions": 8299,
      "Ġaer": 8300,
      "Ġpolar": 8301,
      "Ġrecovery": 8302,
      "Ġtriangle": 8303,
      "ĠSaint": 8304,
      "ĠOnline": 8305,
      "Ġbroader": 8306,
      "Ġclaimed": 8307,
      "Ġinvestigation": 8308,
      "Ġfeaturing": 8309,
      "2011": 8310,
      "Ġneuro": 8311,
      "Ġcognitive": 8312,
      "Ġcomo": 8313,
      "rance": 8314,
      "Ġnit": 8315,
      "ĠAst": 8316,
      "åĪĨ": 8317,
      "ĠTreat": 8318,
      "Ġdelay": 8319,
      "lation": 8320,
      "Ġexplo": 8321,
      "TH": 8322,
      "ansas": 8323,
      "Ġemergency": 8324,
      "ĠDutch": 8325,
      "Ġ48": 8326,
      "iosity": 8327,
      "Ġregulations": 8328,
      "Ġê°": 8329,
      "ĠBattle": 8330,
      "ko": 8331,
      "æĸ¹": 8332,
      "Ġjudge": 8333,
      "Ġbreath": 8334,
      "case": 8335,
      "Ġimpacts": 8336,
      "Ġphrase": 8337,
      "ader": 8338,
      "Ġprotected": 8339,
      "Ġenthus": 8340,
      "Ġrepresenting": 8341,
      "Ġwine": 8342,
      "Ġou": 8343,
      "mann": 8344,
      "ĠÐ¼Ð¾Ð¶": 8345,
      "ylvania": 8346,
      "Ġsolving": 8347,
      "ulpt": 8348,
      "Ð¸Ñİ": 8349,
      "Ġimplications": 8350,
      "words": 8351,
      "ÃĹ": 8352,
      "ĠEll": 8353,
      "ĠQueen": 8354,
      "·¸": 8355,
      "plication": 8356,
      "iability": 8357,
      "anes": 8358,
      "Ġdefense": 8359,
      "Ã²": 8360,
      "sim": 8361,
      "Ġimprovement": 8362,
      "sigma": 8363,
      "DP": 8364,
      "ĠÃĹ": 8365,
      "Ġcompare": 8366,
      "gence": 8367,
      "Ġterritory": 8368,
      "you": 8369,
      "ela": 8370,
      "Ð¸Ð´": 8371,
      "Ġtag": 8372,
      "Ġemissions": 8373,
      "ĠAlexander": 8374,
      "Ġindependence": 8375,
      "Ġhall": 8376,
      "ĠScient": 8377,
      "Ġmechanisms": 8378,
      "2008": 8379,
      "Ġreader": 8380,
      "Get": 8381,
      "Ġske": 8382,
      "Ġconj": 8383,
      "Ġfu": 8384,
      "Ġnoticed": 8385,
      "Ġliterary": 8386,
      "gener": 8387,
      "Ġhat": 8388,
      "ements": 8389,
      "aylor": 8390,
      "racing": 8391,
      "Ġfabric": 8392,
      "ĠSometimes": 8393,
      "Ġmillions": 8394,
      "Ġmagic": 8395,
      "Ġbiggest": 8396,
      "Ġpersons": 8397,
      "ĠAge": 8398,
      "ĠMid": 8399,
      "okes": 8400,
      "2017": 8401,
      "ÑĭÐ²": 8402,
      "Ġgenes": 8403,
      "Ġhundreds": 8404,
      "forcement": 8405,
      "Most": 8406,
      "Ġmeasurement": 8407,
      "actions": 8408,
      "ĊĊĠ": 8409,
      "Ġinterpretation": 8410,
      "VID": 8411,
      "Ġcreativity": 8412,
      "ÐµÐ±": 8413,
      "everal": 8414,
      "å®ļ": 8415,
      "Ġdebut": 8416,
      "mal": 8417,
      "overty": 8418,
      "ĠAmong": 8419,
      "Ġtheories": 8420,
      "Med": 8421,
      "Ġgrown": 8422,
      "John": 8423,
      "ells": 8424,
      "Ġinterface": 8425,
      "ĠAT": 8426,
      "olds": 8427,
      "\">": 8428,
      "Ġmyth": 8429,
      "Ġinference": 8430,
      "ĠSep": 8431,
      "ĠScotland": 8432,
      "una": 8433,
      "Ġcycl": 8434,
      "ĠCheck": 8435,
      "Car": 8436,
      "Ġwilling": 8437,
      "ÐºÐ°": 8438,
      "Ġblow": 8439,
      "Ġ120": 8440,
      "Ġtrained": 8441,
      "sem": 8442,
      "Ġcommitment": 8443,
      "Ġfib": 8444,
      "ĠBoston": 8445,
      "Ġpossibility": 8446,
      "Please": 8447,
      "Ġ69": 8448,
      "Ġnavigate": 8449,
      "Person": 8450,
      "$$.": 8451,
      "Ġchose": 8452,
      "Ġmeasurements": 8453,
      "Ġdemonstrate": 8454,
      "Ġsimultaneously": 8455,
      "omorph": 8456,
      "Ġboost": 8457,
      "Ġgro": 8458,
      "Ġchronic": 8459,
      "æİ": 8460,
      "Ġabstract": 8461,
      "Ġwet": 8462,
      "Ġ1987": 8463,
      "Ġshaping": 8464,
      "ĊĠĠĠĠĠ": 8465,
      "Ġbear": 8466,
      "ĠDie": 8467,
      "Ġroutine": 8468,
      "Ġsad": 8469,
      "Ġputting": 8470,
      "ĠBase": 8471,
      "Ġdepos": 8472,
      "Ġexperimental": 8473,
      "Ġexcited": 8474,
      "Ġgrad": 8475,
      "itivity": 8476,
      "Ġgradually": 8477,
      "Ġtables": 8478,
      "isher": 8479,
      "ĠMathematics": 8480,
      "Ġdollars": 8481,
      "ĠKorea": 8482,
      "%)": 8483,
      "Data": 8484,
      "Ġconventional": 8485,
      "Ġfostering": 8486,
      "Ġshirt": 8487,
      "Ġ400": 8488,
      "Ġauthorities": 8489,
      "àª¾": 8490,
      "Ġaudio": 8491,
      "Ġevaluate": 8492,
      "ĠFacebook": 8493,
      "Ġassociation": 8494,
      "Ġselling": 8495,
      "Ġvegetables": 8496,
      "ĠAuthor": 8497,
      "Ġbiological": 8498,
      "ĠAp": 8499,
      "vas": 8500,
      "à³": 8501,
      "Ġorders": 8502,
      "Ġscheme": 8503,
      "Ġseasons": 8504,
      "Ġsought": 8505,
      "Ġextension": 8506,
      "OD": 8507,
      "Ġprincipal": 8508,
      "sl": 8509,
      "Ġheavily": 8510,
      "Ġattached": 8511,
      "Ġrecording": 8512,
      "Ġremind": 8513,
      "Ġnucle": 8514,
      "Ġcommission": 8515,
      "such": 8516,
      "input": 8517,
      "ĠKnow": 8518,
      "Ġjoy": 8519,
      "ĠRome": 8520,
      "à¥Ģ": 8521,
      "Ġseparated": 8522,
      "worth": 8523,
      "Ġgovernments": 8524,
      "Ġactors": 8525,
      "Ġseed": 8526,
      "ployment": 8527,
      "%.": 8528,
      "Ġgent": 8529,
      "Ġescape": 8530,
      "Ġstages": 8531,
      "Ġinsert": 8532,
      "oval": 8533,
      "Ġinches": 8534,
      "Ġcarrying": 8535,
      "Ġethnic": 8536,
      "ĠNext": 8537,
      "Ġprofile": 8538,
      "Ġending": 8539,
      "ĠEp": 8540,
      "Ġexposed": 8541,
      "Ġbrows": 8542,
      "izz": 8543,
      "æľ¬": 8544,
      "Ġawarded": 8545,
      "Ġnan": 8546,
      "EF": 8547,
      "HT": 8548,
      "indu": 8549,
      "adel": 8550,
      "cycl": 8551,
      "Ġneighb": 8552,
      "Ġmatches": 8553,
      "ĠCoast": 8554,
      "ĠMaster": 8555,
      "Ġshapes": 8556,
      "illy": 8557,
      "ilib": 8558,
      "BN": 8559,
      "Ġupdated": 8560,
      "person": 8561,
      "Ġton": 8562,
      "ĠTable": 8563,
      "enger": 8564,
      "ĠStudy": 8565,
      "ĠGree": 8566,
      "Ġcalling": 8567,
      "door": 8568,
      "aved": 8569,
      "Ġarc": 8570,
      "Ġcollective": 8571,
      "Def": 8572,
      "Ġ1985": 8573,
      "Ġpolitician": 8574,
      "ĠPhysics": 8575,
      "ĠJones": 8576,
      "rium": 8577,
      "Ġ34": 8578,
      "Ġconcrete": 8579,
      "Ġsubstance": 8580,
      "Ġships": 8581,
      "ÐµÑģÑĤÐ²": 8582,
      "Ġlegs": 8583,
      "Ġbutter": 8584,
      "ila": 8585,
      "ĠMedicine": 8586,
      "Ġsurvival": 8587,
      "Ġlosing": 8588,
      "ptic": 8589,
      "Ġhousing": 8590,
      "Ġsuit": 8591,
      "Ġissued": 8592,
      "een": 8593,
      "Ġevening": 8594,
      "Ġaxis": 8595,
      "Ġautomatically": 8596,
      "ĠPolit": 8597,
      "ĠSat": 8598,
      "Ġnewly": 8599,
      "Ġexpectations": 8600,
      "çĶŁ": 8601,
      "ĠChampionship": 8602,
      "Ø§ÙĦ": 8603,
      "hesis": 8604,
      "ĠCharl": 8605,
      "Ġinstruments": 8606,
      "Ġnormally": 8607,
      "ĠParliament": 8608,
      "Ġcha": 8609,
      "ĠNations": 8610,
      "ĠReport": 8611,
      "Ġevaluation": 8612,
      "http": 8613,
      "ĠÐ¸Ð»Ð¸": 8614,
      "Ġresilience": 8615,
      "ĠMaybe": 8616,
      "ĠNC": 8617,
      "2014": 8618,
      "Ð°Ð¼Ð¸": 8619,
      "ĠTake": 8620,
      "Ġchick": 8621,
      "Ġdrinking": 8622,
      "2015": 8623,
      "Ġlens": 8624,
      "Ġrobust": 8625,
      "Ġlists": 8626,
      "atial": 8627,
      "Ġgrid": 8628,
      "ĠÐ¶": 8629,
      "Name": 8630,
      "ector": 8631,
      "Ġresid": 8632,
      "Ġimplemented": 8633,
      "Ġmovies": 8634,
      "ĠRetrieved": 8635,
      "Treat": 8636,
      "Ġcounty": 8637,
      "ĠApple": 8638,
      "ĠImp": 8639,
      "La": 8640,
      "Ġheritage": 8641,
      "Ġpartial": 8642,
      "ping": 8643,
      "Ġtrouble": 8644,
      "Ġcomputing": 8645,
      "æı": 8646,
      "ÅĤ": 8647,
      "Ġtracks": 8648,
      "anche": 8649,
      "ctic": 8650,
      "Ġprominent": 8651,
      "ĠProfessor": 8652,
      "Ġshock": 8653,
      "Ġunus": 8654,
      "Ġarbit": 8655,
      "Ġseeds": 8656,
      "åĪ°": 8657,
      "ĠCurrent": 8658,
      "iture": 8659,
      "Ġrent": 8660,
      "Ġmultip": 8661,
      "ĠJersey": 8662,
      "endo": 8663,
      "last": 8664,
      "Ġnaturally": 8665,
      "ĠNAS": 8666,
      "ĠHa": 8667,
      "Ġ1984": 8668,
      "fast": 8669,
      "Ġlect": 8670,
      "Ġcommunicate": 8671,
      "ĠÙĨ": 8672,
      "Ġgram": 8673,
      "Up": 8674,
      "Ġdimension": 8675,
      "OW": 8676,
      "Ġneither": 8677,
      "lar": 8678,
      "ĠFigure": 8679,
      "TeX": 8680,
      "Ġexamining": 8681,
      "Ġcomplicated": 8682,
      "Ġspectrum": 8683,
      "ĠÐ¿ÑĢÐµÐ´": 8684,
      "Ġstudio": 8685,
      "Ġresulted": 8686,
      "sts": 8687,
      "ĠJustice": 8688,
      "Ġarr": 8689,
      "Ġrestaurant": 8690,
      "Ġnarratives": 8691,
      "ĠFrancisco": 8692,
      "Ġ${": 8693,
      "Ġvertical": 8694,
      "rical": 8695,
      "ĠBern": 8696,
      "Ġencounter": 8697,
      "Ġcream": 8698,
      "Ġoperate": 8699,
      "ĠAmazon": 8700,
      "abeth": 8701,
      "CA": 8702,
      "2016": 8703,
      "Ġvoltage": 8704,
      "ĠWorks": 8705,
      "Key": 8706,
      "ĠCirc": 8707,
      "Ġwisdom": 8708,
      "ĠPakistan": 8709,
      "Ġmoder": 8710,
      "}$.": 8711,
      "ĠMichigan": 8712,
      "ussian": 8713,
      "ĠFund": 8714,
      "Ġatoms": 8715,
      "umni": 8716,
      "gr": 8717,
      "Ġpairs": 8718,
      "Ġreceiving": 8719,
      "Ġlibraries": 8720,
      "ĠHand": 8721,
      "((": 8722,
      "ĠLanguage": 8723,
      "Ġfurn": 8724,
      "Ġschedule": 8725,
      "Ġgeometry": 8726,
      "Ġquiet": 8727,
      "ĠNumber": 8728,
      "Mus": 8729,
      "à¤¨": 8730,
      "rays": 8731,
      "Ġprofound": 8732,
      "Ġfriendly": 8733,
      "Ġagricultural": 8734,
      "fortunately": 8735,
      "lib": 8736,
      "Ġstrategic": 8737,
      "Ġanalyze": 8738,
      "ĠCub": 8739,
      "Ġ1000": 8740,
      "Ġposts": 8741,
      "Ġkitchen": 8742,
      "ĠLiter": 8743,
      "çĲĨ": 8744,
      "Ġtested": 8745,
      "Ġdebate": 8746,
      "Ġfulf": 8747,
      "×ķ×": 8748,
      "ĠAdminist": 8749,
      "Ã©e": 8750,
      "Ġcul": 8751,
      "åĳ": 8752,
      "Ġindigenous": 8753,
      "Ġcriminal": 8754,
      "aters": 8755,
      "Ġapplying": 8756,
      "Ġzone": 8757,
      "Zbl": 8758,
      "Ġroof": 8759,
      "Ġcharged": 8760,
      "Ùĥ": 8761,
      "Ġsuffering": 8762,
      "Ġceremon": 8763,
      "igrants": 8764,
      "ĠDown": 8765,
      "Ġdisput": 8766,
      "Ġproved": 8767,
      "Ġsight": 8768,
      "acks": 8769,
      "brid": 8770,
      "->": 8771,
      "Ġaccommod": 8772,
      "Ġwed": 8773,
      "ĠHu": 8774,
      "ÑĭÐµ": 8775,
      "Ġraw": 8776,
      "ennis": 8777,
      "Ġ37": 8778,
      "Ġpresentation": 8779,
      "Ġmanufacturing": 8780,
      "Ġhaz": 8781,
      "vo": 8782,
      "ĠÐ¸ÑģÐ¿": 8783,
      ":\\": 8784,
      "Ġeastern": 8785,
      "Ġaqu": 8786,
      "Ġdoubt": 8787,
      "present": 8788,
      "nsylvania": 8789,
      "ĠMonday": 8790,
      "ĠOutput": 8791,
      "ban": 8792,
      "Ġpip": 8793,
      "Ġconcert": 8794,
      "Ġincorporate": 8795,
      "Ġ1979": 8796,
      "itudes": 8797,
      "Next": 8798,
      "Ġtreatments": 8799,
      "Ġtank": 8800,
      "umps": 8801,
      "Ġintern": 8802,
      "idation": 8803,
      "æ¬": 8804,
      "à¤Ĥ": 8805,
      "Ġsomewhat": 8806,
      "2004": 8807,
      "ĠEdward": 8808,
      "Ġregul": 8809,
      "Ġtang": 8810,
      "Ġpsychological": 8811,
      "Ġphotograph": 8812,
      "ìĭ": 8813,
      "Ġscored": 8814,
      "ĠCarl": 8815,
      "Sim": 8816,
      "aded": 8817,
      "ocracy": 8818,
      "Ġtransmission": 8819,
      "aska": 8820,
      "Ġsick": 8821,
      "Ġinfluenced": 8822,
      "ĠMP": 8823,
      "Ð½Ð¾ÑģÑĤÐ¸": 8824,
      "Pre": 8825,
      "Ġneck": 8826,
      "Ġalter": 8827,
      "ĠCentre": 8828,
      "Ġcub": 8829,
      "Ġdealing": 8830,
      "Ġclothing": 8831,
      "late": 8832,
      "Ġwal": 8833,
      "erior": 8834,
      "Ġbringing": 8835,
      "Ġhence": 8836,
      "ĠEs": 8837,
      "Ġweapons": 8838,
      "ĠIraq": 8839,
      "ĠFar": 8840,
      "ĠLewis": 8841,
      "Ñĳ": 8842,
      "Ġdating": 8843,
      "ĠCorpor": 8844,
      "æĦ": 8845,
      "RL": 8846,
      "ĠWales": 8847,
      "Ġenables": 8848,
      "Ġlistening": 8849,
      "Ġexecutive": 8850,
      "ĠLin": 8851,
      "Ġpurchased": 8852,
      "Ġbass": 8853,
      "ĠBir": 8854,
      "Ġtowns": 8855,
      "Ġwonderful": 8856,
      "Given": 8857,
      "arters": 8858,
      "uns": 8859,
      "ä½ľ": 8860,
      "iones": 8861,
      "Ġforth": 8862,
      "ĠGall": 8863,
      "lements": 8864,
      "user": 8865,
      "Ġnode": 8866,
      "ĠSection": 8867,
      "ami": 8868,
      "Ġsegment": 8869,
      "html": 8870,
      "éĿ": 8871,
      "Ġfaces": 8872,
      "bin": 8873,
      "plo": 8874,
      "Ġreaching": 8875,
      "elly": 8876,
      "Ġfacility": 8877,
      "td": 8878,
      "len": 8879,
      "ĠBuilding": 8880,
      "Ġdefend": 8881,
      "ĠText": 8882,
      "ĠJon": 8883,
      "inson": 8884,
      "Ġmyster": 8885,
      "ĠChall": 8886,
      "Ġlung": 8887,
      "ÑĥÑĢ": 8888,
      "hop": 8889,
      "ĠVan": 8890,
      "Mar": 8891,
      "Ã¡n": 8892,
      "Cre": 8893,
      "ä¼ĺ": 8894,
      "ĠAccess": 8895,
      "Ġlock": 8896,
      "ocolate": 8897,
      "Ġengaged": 8898,
      "Ġprofit": 8899,
      "Ġhydrogen": 8900,
      "Ġminimal": 8901,
      "Ġreasonable": 8902,
      "opher": 8903,
      "roud": 8904,
      "Ġproducer": 8905,
      "ëı": 8906,
      "Ġabandon": 8907,
      "ĠBuddh": 8908,
      "Ġgift": 8909,
      "ĠCode": 8910,
      "Ġpig": 8911,
      "Ġboat": 8912,
      "Ġintellectual": 8913,
      "Ġcaptured": 8914,
      "she": 8915,
      "Ġwheel": 8916,
      "Living": 8917,
      "Ġproteins": 8918,
      "ymph": 8919,
      "Ġensures": 8920,
      "ĠDar": 8921,
      "Ġearned": 8922,
      "orted": 8923,
      "Ġestimates": 8924,
      "Ġdefinitely": 8925,
      "ĠTH": 8926,
      "ĠStan": 8927,
      "mbol": 8928,
      "oven": 8929,
      "iem": 8930,
      "Ġincorporating": 8931,
      "Ġmodified": 8932,
      "ä¸Ĭ": 8933,
      "example": 8934,
      "ontal": 8935,
      "Ġartificial": 8936,
      "Ġagencies": 8937,
      "Ġbinary": 8938,
      "ÐŁ": 8939,
      "Ġbehaviors": 8940,
      "Ġmolecules": 8941,
      "Ġgap": 8942,
      "Ġpollution": 8943,
      "icity": 8944,
      "LC": 8945,
      "ĠInit": 8946,
      "Ġsatell": 8947,
      "Ġacquired": 8948,
      "ĠAsh": 8949,
      "×Ļ×": 8950,
      "æ¯": 8951,
      "ĠIP": 8952,
      "Ġrelief": 8953,
      "bury": 8954,
      "ĠID": 8955,
      "vals": 8956,
      "width": 8957,
      "Ġthank": 8958,
      "Ġestate": 8959,
      "ĠKn": 8960,
      "Ġpresents": 8961,
      "Ġamid": 8962,
      "Ġje": 8963,
      "Ġproduces": 8964,
      "Ġdemonstrated": 8965,
      "Ġfract": 8966,
      "ĠExample": 8967,
      "ship": 8968,
      "ĠGa": 8969,
      "FC": 8970,
      "Ġelectrons": 8971,
      "Ġintegrated": 8972,
      "xx": 8973,
      "Ġfer": 8974,
      "unct": 8975,
      "ĠAndrew": 8976,
      "Ġsemi": 8977,
      "index": 8978,
      "alog": 8979,
      "åĲĮ": 8980,
      "ĠGeorgia": 8981,
      "ĠOcean": 8982,
      "Ġemerged": 8983,
      "opt": 8984,
      "Ġchannels": 8985,
      "Ġemerging": 8986,
      "ropical": 8987,
      "Ġterror": 8988,
      "ĠUlt": 8989,
      "Ġmedal": 8990,
      "Ġdefeated": 8991,
      "Ġtack": 8992,
      "Ġcapabilities": 8993,
      "Ġinject": 8994,
      "Ġages": 8995,
      "cludes": 8996,
      "Ġdiscussing": 8997,
      "ĠLy": 8998,
      "Ġtwenty": 8999,
      "Ġsupplies": 9000,
      "Ġhumanity": 9001,
      "Ġdestroyed": 9002,
      "Ġride": 9003,
      ",,": 9004,
      "æ³ķ": 9005,
      "Ġ73": 9006,
      "Ġà¤ķ": 9007,
      "æĪ·": 9008,
      "Ġpump": 9009,
      "Ġcandidate": 9010,
      "ĠWord": 9011,
      "olt": 9012,
      "ĠCa": 9013,
      "à¤¤": 9014,
      "Ġemotion": 9015,
      "Ġcrowd": 9016,
      "Ġstead": 9017,
      "uten": 9018,
      "ĠRam": 9019,
      "Ġfarmers": 9020,
      "Ġ42": 9021,
      "2019": 9022,
      "aze": 9023,
      "Ġintegers": 9024,
      "Ġmolecular": 9025,
      "ĠAff": 9026,
      "æĢ§": 9027,
      "Ġexpanded": 9028,
      "Ġtransp": 9029,
      "ĠThough": 9030,
      "Ġexplains": 9031,
      "Ġstrange": 9032,
      "Ġbattery": 9033,
      "Ġcreatures": 9034,
      "Ġsculpt": 9035,
      "ĠSummer": 9036,
      "ĠNature": 9037,
      "Ġfoster": 9038,
      "ãģĦ": 9039,
      "SW": 9040,
      "Ġassert": 9041,
      "ĠPrinc": 9042,
      "SD": 9043,
      "ĠðŁ": 9044,
      "Ġvert": 9045,
      "å¿": 9046,
      "Ġtact": 9047,
      "Ġpermanent": 9048,
      "Ġregression": 9049,
      "lights": 9050,
      "obile": 9051,
      "Ġscenarios": 9052,
      "EP": 9053,
      "ĠØ±": 9054,
      "(-": 9055,
      "ĠKen": 9056,
      "ĠIT": 9057,
      "Ġpuzz": 9058,
      "peror": 9059,
      "`,": 9060,
      "Ġconcerning": 9061,
      "ĠThose": 9062,
      "Art": 9063,
      "rot": 9064,
      "Ġedges": 9065,
      "uesday": 9066,
      "}}$": 9067,
      "}}{": 9068,
      "Ġcharacterized": 9069,
      "2020": 9070,
      "Ġenemy": 9071,
      "Ġinterval": 9072,
      "Ġhardware": 9073,
      "ĠChief": 9074,
      "Ġaffects": 9075,
      "iest": 9076,
      "pled": 9077,
      "ictionary": 9078,
      "Ġbat": 9079,
      "Ġrealize": 9080,
      "ĠNOT": 9081,
      "Ġclimb": 9082,
      "ĠTour": 9083,
      "Alice": 9084,
      "ĠCle": 9085,
      "ori": 9086,
      "Ġdrag": 9087,
      "2018": 9088,
      "Ġ1983": 9089,
      "Ġradius": 9090,
      "ĠInvest": 9091,
      "Ġhole": 9092,
      "Ġoverw": 9093,
      "ervative": 9094,
      "Ġagents": 9095,
      "Ġfocuses": 9096,
      "ĠFilm": 9097,
      "ĠOxford": 9098,
      "zech": 9099,
      "Ð»Ñİ": 9100,
      "awn": 9101,
      "Ġdust": 9102,
      "ampion": 9103,
      "Ġintense": 9104,
      "uh": 9105,
      "Ġpublication": 9106,
      "Ġrows": 9107,
      "Ġble": 9108,
      "ãģ«": 9109,
      "count": 9110,
      "amber": 9111,
      "Ġpand": 9112,
      "Ġtrick": 9113,
      "Under": 9114,
      "Ġdetection": 9115,
      "aven": 9116,
      "Ġimplies": 9117,
      "dy": 9118,
      "Ġtip": 9119,
      "Ġ1982": 9120,
      "Ġnovels": 9121,
      "ĠPennsylvania": 9122,
      "ĠWinter": 9123,
      "human": 9124,
      "Ġgreatly": 9125,
      "å¥": 9126,
      "Ġcharges": 9127,
      "Ġmixture": 9128,
      "Ġpanel": 9129,
      "Ġ55": 9130,
      "ĠSarah": 9131,
      "Ġmodule": 9132,
      "Ġwindows": 9133,
      "including": 9134,
      "ĠDC": 9135,
      "Ġattended": 9136,
      "opes": 9137,
      "ĠÐºÐ¾Ð½": 9138,
      "planation": 9139,
      "Ġsizes": 9140,
      "Ġoperators": 9141,
      "rip": 9142,
      "$$,": 9143,
      "Ġexercises": 9144,
      "Cons": 9145,
      "Ġshopping": 9146,
      "amente": 9147,
      "Ġdebt": 9148,
      "Ġtranslated": 9149,
      "Ġbonds": 9150,
      "Ġangles": 9151,
      "ursday": 9152,
      "Ġ]": 9153,
      "Ġsod": 9154,
      "Ġmoon": 9155,
      "ĠEss": 9156,
      "uled": 9157,
      "Ġclothes": 9158,
      "ĠSem": 9159,
      "ĠWin": 9160,
      "ĠProcess": 9161,
      "Ġdeclared": 9162,
      "Ġwithd": 9163,
      "Ġprev": 9164,
      "Ġcuriosity": 9165,
      "IFF": 9166,
      "ographical": 9167,
      "2003": 9168,
      "ĠTurk": 9169,
      "Ġmonitor": 9170,
      "Ġhung": 9171,
      "Ġnewspaper": 9172,
      "Ġrepair": 9173,
      "Ġstopped": 9174,
      "Ġordinary": 9175,
      "ĠMoon": 9176,
      "Ġadequ": 9177,
      "Ġsubsc": 9178,
      "Ġconsumers": 9179,
      "Ġwww": 9180,
      "Ġincident": 9181,
      "Ġvisitors": 9182,
      "Ġhandling": 9183,
      "ricts": 9184,
      "Ġepisodes": 9185,
      "fig": 9186,
      "Jo": 9187,
      "sis": 9188,
      "Ġveter": 9189,
      "Ġscenario": 9190,
      "ĠAL": 9191,
      "Ġtheoretical": 9192,
      "MC": 9193,
      "ifer": 9194,
      "Ġscope": 9195,
      "Ġfewer": 9196,
      "ĠYet": 9197,
      "Ġguy": 9198,
      "rates": 9199,
      "Ġìł": 9200,
      "Ġappreciation": 9201,
      "Ġcoordinates": 9202,
      "ĠPage": 9203,
      "Ġconsumer": 9204,
      "ĠArea": 9205,
      "Ġspark": 9206,
      "disc": 9207,
      "ìĬ": 9208,
      "Ġlights": 9209,
      "ĠRadio": 9210,
      "Ġpert": 9211,
      "Ġ38": 9212,
      "holders": 9213,
      "ĠJoe": 9214,
      "riptions": 9215,
      "Ġcurious": 9216,
      "Ġkick": 9217,
      "æĿ¥": 9218,
      "Ġ$(": 9219,
      "ĠCP": 9220,
      "ĠGar": 9221,
      "ĠKent": 9222,
      "Ġemployment": 9223,
      "Ġrailway": 9224,
      "ĠOhio": 9225,
      "Ġbike": 9226,
      "Ġbio": 9227,
      "Ġagriculture": 9228,
      "Ġactress": 9229,
      "ĠGuide": 9230,
      "nesday": 9231,
      "ĠCreate": 9232,
      "ĠMic": 9233,
      "osph": 9234,
      "Ġbigger": 9235,
      "Ġabund": 9236,
      ")/": 9237,
      "di": 9238,
      "lementary": 9239,
      "Ġirre": 9240,
      "pa": 9241,
      "Ġworse": 9242,
      "anches": 9243,
      "ĠRay": 9244,
      "reshold": 9245,
      "Ð¾ÑĢÐ¼": 9246,
      "Ġreliable": 9247,
      "ĠJackson": 9248,
      "Time": 9249,
      "zed": 9250,
      "Ġum": 9251,
      "ados": 9252,
      "thur": 9253,
      "Ġconfront": 9254,
      "Ġsharp": 9255,
      "Ġtitles": 9256,
      "iger": 9257,
      "Ġstrongly": 9258,
      "ĠCost": 9259,
      "har": 9260,
      "ĠÑįÑĤ": 9261,
      "ĠNever": 9262,
      "Ġmeal": 9263,
      "ympt": 9264,
      "['": 9265,
      "Ġdecade": 9266,
      "Ġfifth": 9267,
      "Type": 9268,
      "Ġnurs": 9269,
      "Ġresolve": 9270,
      "Ġrely": 9271,
      "ĠLow": 9272,
      "å±": 9273,
      "Ġtechnological": 9274,
      "Ġtempor": 9275,
      "ishment": 9276,
      "normal": 9277,
      "ĠExamples": 9278,
      "ĠEnt": 9279,
      "Ġadds": 9280,
      "Explanation": 9281,
      "gment": 9282,
      "Ġrelat": 9283,
      "Ġcust": 9284,
      "Ġille": 9285,
      "earing": 9286,
      "Ġinjuries": 9287,
      "etts": 9288,
      "ĠHoly": 9289,
      "Ġmarks": 9290,
      "Ġcontributed": 9291,
      "oured": 9292,
      "ĠTurkey": 9293,
      "Ġlogical": 9294,
      "Then": 9295,
      "ĠFestival": 9296,
      "à¦°": 9297,
      "Ġhistoric": 9298,
      "Ġ00": 9299,
      "Ġasp": 9300,
      "Ġassets": 9301,
      "called": 9302,
      "ugby": 9303,
      "à§ĩ": 9304,
      "ĠFun": 9305,
      "Ġvisited": 9306,
      "rating": 9307,
      "atively": 9308,
      "Ġempathy": 9309,
      "lected": 9310,
      "Ġtoler": 9311,
      "Ġreveal": 9312,
      "ĠEarly": 9313,
      "otype": 9314,
      "ĠBroad": 9315,
      "æĭ": 9316,
      "Ġassumed": 9317,
      "Ġhonest": 9318,
      "']": 9319,
      "ĠAk": 9320,
      "ðĿ": 9321,
      "atis": 9322,
      "ĠTaylor": 9323,
      "Ġdism": 9324,
      "Ġcolumns": 9325,
      "Ġindustries": 9326,
      "Ġmuscles": 9327,
      "Ġapproved": 9328,
      "ĠPolish": 9329,
      "ĠSports": 9330,
      "Ã©n": 9331,
      "Ġregardless": 9332,
      "$-": 9333,
      "mail": 9334,
      "ĠBat": 9335,
      "lessly": 9336,
      "Ġdoctors": 9337,
      "Ġcriteria": 9338,
      "itting": 9339,
      "dx": 9340,
      "Ġsurfaces": 9341,
      "encing": 9342,
      "ĠMajor": 9343,
      "Ġscenes": 9344,
      "áŁ": 9345,
      "ĠProper": 9346,
      "ĠSupport": 9347,
      "Comm": 9348,
      "Ġintervention": 9349,
      "Ġbomb": 9350,
      "Ġmand": 9351,
      "Ġinterior": 9352,
      "ĠDigital": 9353,
      "èµ": 9354,
      "Well": 9355,
      "Ġcompass": 9356,
      "ÐµÑĪ": 9357,
      "map": 9358,
      "Add": 9359,
      "ĠDaniel": 9360,
      "tery": 9361,
      "='": 9362,
      "anz": 9363,
      "Ġfalls": 9364,
      "Ġpenet": 9365,
      "ĠMicrosoft": 9366,
      "Ġgiant": 9367,
      "Ġru": 9368,
      "atern": 9369,
      "Ġequally": 9370,
      "izabeth": 9371,
      "cient": 9372,
      "åİ": 9373,
      "Ġdropped": 9374,
      "ĠFer": 9375,
      "ĠÐŃ": 9376,
      "Ġforum": 9377,
      "teen": 9378,
      "Ġrefuge": 9379,
      "Ġsurprise": 9380,
      "ĠCambridge": 9381,
      "ÐµÐ¿": 9382,
      "Val": 9383,
      "Ġclubs": 9384,
      "Ġconfiguration": 9385,
      "vi": 9386,
      "ĠPerform": 9387,
[...]
